{
  "version": "1.0",
  "truncation": null,
  "padding": null,
  "added_tokens": [
    {
      "id": 0,
      "content": "<|endoftext|>",
      "single_word": false,
      "lstrip": false,
      "rstrip": false,
      "normalized": false,
      "special": true
    },
    {
      "id": 1,
      "content": "<|im_start|>",
      "single_word": false,
      "lstrip": false,
      "rstrip": false,
      "normalized": false,
      "special": true
    },
    {
      "id": 2,
      "content": "<|im_end|>",
      "single_word": false,
      "lstrip": false,
      "rstrip": false,
      "normalized": false,
      "special": true
    },
    {
      "id": 3,
      "content": "<pad>",
      "single_word": false,
      "lstrip": false,
      "rstrip": false,
      "normalized": false,
      "special": true
    },
    {
      "id": 4,
      "content": "<mask>",
      "single_word": false,
      "lstrip": false,
      "rstrip": false,
      "normalized": false,
      "special": true
    }
  ],
  "normalizer": null,
  "pre_tokenizer": {
    "type": "ByteLevel",
    "add_prefix_space": false,
    "trim_offsets": true,
    "use_regex": true
  },
  "post_processor": null,
  "decoder": {
    "type": "ByteLevel",
    "add_prefix_space": true,
    "trim_offsets": true,
    "use_regex": true
  },
  "model": {
    "type": "BPE",
    "dropout": null,
    "unk_token": null,
    "continuing_subword_prefix": null,
    "end_of_word_suffix": null,
    "fuse_unk": false,
    "byte_fallback": false,
    "ignore_merges": false,
    "vocab": {
      "<|endoftext|>": 0,
      "<|im_start|>": 1,
      "<|im_end|>": 2,
      "<pad>": 3,
      "<mask>": 4,
      "!": 5,
      "\"": 6,
      "#": 7,
      "$": 8,
      "%": 9,
      "&": 10,
      "'": 11,
      "(": 12,
      ")": 13,
      "*": 14,
      "+": 15,
      ",": 16,
      "-": 17,
      ".": 18,
      "/": 19,
      "0": 20,
      "1": 21,
      "2": 22,
      "3": 23,
      "4": 24,
      "5": 25,
      "6": 26,
      "7": 27,
      "8": 28,
      "9": 29,
      ":": 30,
      ";": 31,
      "<": 32,
      "=": 33,
      ">": 34,
      "?": 35,
      "@": 36,
      "A": 37,
      "B": 38,
      "C": 39,
      "D": 40,
      "E": 41,
      "F": 42,
      "G": 43,
      "H": 44,
      "I": 45,
      "J": 46,
      "K": 47,
      "L": 48,
      "M": 49,
      "N": 50,
      "O": 51,
      "P": 52,
      "Q": 53,
      "R": 54,
      "S": 55,
      "T": 56,
      "U": 57,
      "V": 58,
      "W": 59,
      "X": 60,
      "Y": 61,
      "Z": 62,
      "[": 63,
      "\\": 64,
      "]": 65,
      "^": 66,
      "_": 67,
      "`": 68,
      "a": 69,
      "b": 70,
      "c": 71,
      "d": 72,
      "e": 73,
      "f": 74,
      "g": 75,
      "h": 76,
      "i": 77,
      "j": 78,
      "k": 79,
      "l": 80,
      "m": 81,
      "n": 82,
      "o": 83,
      "p": 84,
      "q": 85,
      "r": 86,
      "s": 87,
      "t": 88,
      "u": 89,
      "v": 90,
      "w": 91,
      "x": 92,
      "y": 93,
      "z": 94,
      "{": 95,
      "|": 96,
      "}": 97,
      "~": 98,
      "¡": 99,
      "¢": 100,
      "£": 101,
      "¤": 102,
      "¥": 103,
      "¦": 104,
      "§": 105,
      "¨": 106,
      "©": 107,
      "ª": 108,
      "«": 109,
      "¬": 110,
      "®": 111,
      "¯": 112,
      "°": 113,
      "±": 114,
      "²": 115,
      "³": 116,
      "´": 117,
      "µ": 118,
      "¶": 119,
      "·": 120,
      "¸": 121,
      "¹": 122,
      "º": 123,
      "»": 124,
      "¼": 125,
      "½": 126,
      "¾": 127,
      "¿": 128,
      "À": 129,
      "Á": 130,
      "Â": 131,
      "Ã": 132,
      "Ä": 133,
      "Å": 134,
      "Æ": 135,
      "Ç": 136,
      "È": 137,
      "É": 138,
      "Ê": 139,
      "Ë": 140,
      "Ì": 141,
      "Í": 142,
      "Î": 143,
      "Ï": 144,
      "Ð": 145,
      "Ñ": 146,
      "Ò": 147,
      "Ó": 148,
      "Ô": 149,
      "Õ": 150,
      "Ö": 151,
      "×": 152,
      "Ø": 153,
      "Ù": 154,
      "Ú": 155,
      "Û": 156,
      "Ü": 157,
      "Ý": 158,
      "Þ": 159,
      "ß": 160,
      "à": 161,
      "á": 162,
      "â": 163,
      "ã": 164,
      "ä": 165,
      "å": 166,
      "æ": 167,
      "ç": 168,
      "è": 169,
      "é": 170,
      "ê": 171,
      "ë": 172,
      "ì": 173,
      "í": 174,
      "î": 175,
      "ï": 176,
      "ð": 177,
      "ñ": 178,
      "ò": 179,
      "ó": 180,
      "ô": 181,
      "õ": 182,
      "ö": 183,
      "÷": 184,
      "ø": 185,
      "ù": 186,
      "ú": 187,
      "û": 188,
      "ü": 189,
      "ý": 190,
      "þ": 191,
      "ÿ": 192,
      "Ā": 193,
      "ā": 194,
      "Ă": 195,
      "ă": 196,
      "Ą": 197,
      "ą": 198,
      "Ć": 199,
      "ć": 200,
      "Ĉ": 201,
      "ĉ": 202,
      "Ċ": 203,
      "ċ": 204,
      "Č": 205,
      "č": 206,
      "Ď": 207,
      "ď": 208,
      "Đ": 209,
      "đ": 210,
      "Ē": 211,
      "ē": 212,
      "Ĕ": 213,
      "ĕ": 214,
      "Ė": 215,
      "ė": 216,
      "Ę": 217,
      "ę": 218,
      "Ě": 219,
      "ě": 220,
      "Ĝ": 221,
      "ĝ": 222,
      "Ğ": 223,
      "ğ": 224,
      "Ġ": 225,
      "ġ": 226,
      "Ģ": 227,
      "ģ": 228,
      "Ĥ": 229,
      "ĥ": 230,
      "Ħ": 231,
      "ħ": 232,
      "Ĩ": 233,
      "ĩ": 234,
      "Ī": 235,
      "ī": 236,
      "Ĭ": 237,
      "ĭ": 238,
      "Į": 239,
      "į": 240,
      "İ": 241,
      "ı": 242,
      "Ĳ": 243,
      "ĳ": 244,
      "Ĵ": 245,
      "ĵ": 246,
      "Ķ": 247,
      "ķ": 248,
      "ĸ": 249,
      "Ĺ": 250,
      "ĺ": 251,
      "Ļ": 252,
      "ļ": 253,
      "Ľ": 254,
      "ľ": 255,
      "Ŀ": 256,
      "ŀ": 257,
      "Ł": 258,
      "ł": 259,
      "Ń": 260,
      "ä¸": 261,
      "ï¼": 262,
      "çļ": 263,
      "çļĦ": 264,
      "ï¼Į": 265,
      "ãĢ": 266,
      "ãĢĤ": 267,
      "äº": 268,
      "ä»": 269,
      "åı": 270,
      "æľ": 271,
      "è¿": 272,
      "æĪ": 273,
      "åħ": 274,
      "ä½": 275,
      "æĺ": 276,
      "å¤": 277,
      "im": 278,
      "|>": 279,
      "<|": 280,
      "è¯": 281,
      "ä¸Ģ": 282,
      "æĸ": 283,
      "å®": 284,
      "çĶ": 285,
      "åĪ": 286,
      "åĴ": 287,
      "åľ": 288,
      "åĴĮ": 289,
      "åĲ": 290,
      "åĬ": 291,
      "ç»": 292,
      "ä¹": 293,
      "æĺ¯": 294,
      "å°": 295,
      "åŃ": 296,
      "ä¸ª": 297,
      "ä»¥": 298,
      "è®": 299,
      "ãĢģ": 300,
      "æĪĳ": 301,
      "åľ¨": 302,
      "äºº": 303,
      "ĥ½": 304,
      "ar": 305,
      "en": 306,
      "st": 307,
      "art": 308,
      "end": 309,
      "start": 310,
      "æľī": 311,
      "ï¼ļ": 312,
      "æĹ": 313,
      "äºĨ": 314,
      "åı¯": 315,
      "è¿Ļ": 316,
      "åĽ": 317,
      "æĿ": 318,
      "åº": 319,
      "éĩ": 320,
      "å¹": 321,
      "å¸": 322,
      "ä¸Ń": 323,
      "ä¼": 324,
      "éĢ": 325,
      "è¡": 326,
      "èĥ½": 327,
      "çļĦæ": 328,
      "åĩ": 329,
      "ãĢĤ<|": 330,
      "å·": 331,
      "æĸĩ": 332,
      "åĮ": 333,
      "è¦": 334,
      "è¦ģ": 335,
      "é¢": 336,
      "å¯": 337,
      "å¾": 338,
      "åĨ": 339,
      "ä¸º": 340,
      "è§": 341,
      "å¥": 342,
      "çī": 343,
      "ç§": 344,
      "ä»¬": 345,
      "éĹ": 346,
      "çİ": 347,
      "å¼": 348,
      "ä¸į": 349,
      "çĶ¨": 350,
      "æķ": 351,
      "èĢ": 352,
      "å½": 353,
      "æĢ": 354,
      "æŀ": 355,
      "çĶŁ": 356,
      "çŃ": 357,
      "æı": 358,
      "æī": 359,
      "æŃ": 360,
      "åı¯ä»¥": 361,
      "éĿ": 362,
      "åį": 363,
      "Ġ<|": 364,
      "ä¿": 365,
      "æĬ": 366,
      "æł": 367,
      "æ³": 368,
      "çĽ": 369,
      "âĢ": 370,
      "æĿ¥": 371,
      "èĩ": 372,
      "æĦ": 373,
      "åĵ": 374,
      "å¦": 375,
      "ä¸ĭ": 376,
      "çĲ": 377,
      "ä¸Ģä¸ª": 378,
      "æĪĲ": 379,
      "åİ": 380,
      "æĥ": 381,
      "æıĲ": 382,
      "æ°": 383,
      "åĪ°": 384,
      "ä»ĸ": 385,
      "æĽ": 386,
      "åŃ¦": 387,
      "æĻ": 388,
      "å¦Ĥ": 389,
      "è¡Į": 390,
      "åĩº": 391,
      "åĳ": 392,
      "å¿": 393,
      "æĹ¶": 394,
      "å¯¹": 395,
      "æĭ": 396,
      "ä½ł": 397,
      "åŃĲ": 398,
      "ä¾": 399,
      "äºİ": 400,
      "æİ": 401,
      "åľ°": 402,
      "é¢ĺ": 403,
      "ä¸Ĭ": 404,
      "ç«": 405,
      "æĶ": 406,
      "è´": 407,
      "å°ı": 408,
      "å¥½": 409,
      "ä¼ļ": 410,
      "çŃī": 411,
      "æĸ¹": 412,
      "æľ¬": 413,
      "èĩª": 414,
      "åĪĨ": 415,
      "æĽ´": 416,
      "äºĽ": 417,
      "å¤ļ": 418,
      "æµ": 419,
      "æ¯": 420,
      "èµ": 421,
      "å¤§": 422,
      "å±": 423,
      "æį": 424,
      "ï¼Ł": 425,
      "åĬ¨": 426,
      "ä½ľ": 427,
      "å·¥": 428,
      "çī©": 429,
      "çº": 430,
      "åħ³": 431,
      "è¾": 432,
      "å¹¶": 433,
      "åıĳ": 434,
      "ç®": 435,
      "æĮ": 436,
      "ç±": 437,
      "é£": 438,
      "éľ": 439,
      "æĪĳä»¬": 440,
      "éĿ¢": 441,
      "æ´": 442,
      "å®ļ": 443,
      "æľĢ": 444,
      "åħ¶": 445,
      "æŀľ": 446,
      "åŁ": 447,
      "æ¬": 448,
      "ç§į": 449,
      "çİ°": 450,
      "çļĦç": 451,
      "è¿Ľ": 452,
      "æ³ķ": 453,
      "éĻ": 454,
      "è¿ĩ": 455,
      "æĤ": 456,
      "éĹ®": 457,
      "åģ": 458,
      "æ¸": 459,
      "ä½ĵ": 460,
      "èī": 461,
      "å¤©": 462,
      "å®ĥ": 463,
      "æį®": 464,
      "ç»Ļ": 465,
      "åĬĽ": 466,
      "çĲĨ": 467,
      "æĺİ": 468,
      "éľĢ": 469,
      "æ²": 470,
      "å°Ĩ": 471,
      "åºĶ": 472,
      "åĬł": 473,
      "ç±»": 474,
      "æĸ°": 475,
      "éģ": 476,
      "çĤ": 477,
      "åĮĸ": 478,
      "æĢ§": 479,
      "çĦ": 480,
      "é«": 481,
      "åĲĮ": 482,
      "æĪĸ": 483,
      "ä½¿": 484,
      "åĽł": 485,
      "ä¿Ŀ": 486,
      "å¸¸": 487,
      "éĩį": 488,
      "çľ": 489,
      "é«ĺ": 490,
      "åı¥": 491,
      "è½": 492,
      "æĦŁ": 493,
      "å®¶": 494,
      "ä¹Ł": 495,
      "æľº": 496,
      "å½±": 497,
      "è¶": 498,
      "æ±": 499,
      "ä¸»": 500,
      "éĶ": 501,
      "éĺ": 502,
      "è¯Ń": 503,
      "çĦ¶": 504,
      "ç«ł": 505,
      "å¾Ĺ": 506,
      "âĢĿ": 507,
      "æķ°": 508,
      "æĸĩç«ł": 509,
      "éĢļ": 510,
      "åĵģ": 511,
      "âĢľ": 512,
      "ç³": 513,
      "éľĢè¦ģ": 514,
      "çĶµ": 515,
      "æĬĢ": 516,
      "æĻº": 517,
      "è°": 518,
      "è§£": 519,
      "æĸĩæľ¬": 520,
      "ä¹ĭ": 521,
      "ä¹Ī": 522,
      "æĥħ": 523,
      "æĤ¨": 524,
      "éĹ®é¢ĺ": 525,
      "åº¦": 526,
      "çŁ": 527,
      "èĢĮ": 528,
      "åī": 529,
      "æģ": 530,
      "è¡¨": 531,
      "ç»ı": 532,
      "æĻºèĥ½": 533,
      "è¯·": 534,
      "çĿ": 535,
      "å¾Ī": 536,
      "éĹ´": 537,
      "æŃ¤": 538,
      "èĬ": 539,
      "åĸ": 540,
      "ç¾": 541,
      "åħ¬": 542,
      "å¢": 543,
      "éĩı": 544,
      "åĽ½": 545,
      "ç©": 546,
      "çĤ¹": 547,
      "æľ¯": 548,
      "ç¤": 549,
      "èī²": 550,
      "èĤ": 551,
      "èĢħ": 552,
      "è¯į": 553,
      "å¹´": 554,
      "å®ŀ": 555,
      "æ°Ķ": 556,
      "å»": 557,
      "åĢ": 558,
      "åıĸ": 559,
      "ä¿¡": 560,
      "è¿Ļä¸ª": 561,
      "ä¹ł": 562,
      "åĲį": 563,
      "ç¨": 564,
      "å¿ĥ": 565,
      "ä½Ĩ": 566,
      "åĲĪ": 567,
      "æĦı": 568,
      "è¯¥": 569,
      "ä¸ļ": 570,
      "ä¾Ľ": 571,
      "çĸ": 572,
      "è®¡": 573,
      "åĲİ": 574,
      "ç¡": 575,
      "éĤ": 576,
      "äºĭ": 577,
      "æīĢ": 578,
      "ä»¥ä¸ĭ": 579,
      "ä»İ": 580,
      "è¿ĺ": 581,
      "å»º": 582,
      "æ®": 583,
      "çĽ¸": 584,
      "çĿĢ": 585,
      "çĲĥ": 586,
      "ä¸ĢäºĽ": 587,
      "éĥ½": 588,
      "åĮħ": 589,
      "æıĲä¾Ľ": 590,
      "æ´»": 591,
      "ä¸İ": 592,
      "ç¾İ": 593,
      "æł¹": 594,
      "è¿Ľè¡Į": 595,
      "æŁ": 596,
      "åı¥åŃĲ": 597,
      "ç½": 598,
      "å¼ı": 599,
      "é£Ł": 600,
      "åħ¥": 601,
      "å±ķ": 602,
      "åħ¨": 603,
      "éĩĮ": 604,
      "è¿°": 605,
      "äººå·¥": 606,
      "å¤ĸ": 607,
      "çİ¯": 608,
      "é¡": 609,
      "çķ": 610,
      "çī¹": 611,
      "ä½¿çĶ¨": 612,
      "æĥ³": 613,
      "ç´": 614,
      "éĿŀ": 615,
      "èĲ": 616,
      "é¦": 617,
      "äººå·¥æĻºèĥ½": 618,
      "ç¯": 619,
      "åĨħ": 620,
      "æŃ£": 621,
      "æ¡": 622,
      "è¢": 623,
      "éļ": 624,
      "å½ĵ": 625,
      "å¼Ģ": 626,
      "åİ»": 627,
      "éķ": 628,
      "æģ¯": 629,
      "æł¹æį®": 630,
      "æ°´": 631,
      "æ·": 632,
      "æ¯Ķ": 633,
      "åıĺ": 634,
      "åĨĻ": 635,
      "æ®µ": 636,
      "æĺ¯ä¸Ģ": 637,
      "åŀ": 638,
      "éĥ": 639,
      "ç³»": 640,
      "è·": 641,
      "åĬ©": 642,
      "èģ": 643,
      "è¯´": 644,
      "åŃ¦ä¹ł": 645,
      "ç¨ĭ": 646,
      "åĪ¶": 647,
      "åħ·": 648,
      "ç¡®": 649,
      "å¸Ĥ": 650,
      "è®©": 651,
      "ä»Ģ": 652,
      "éĽ": 653,
      "æĮģ": 654,
      "éģĵ": 655,
      "åĿ": 656,
      "çľĭ": 657,
      "ç¯ĩ": 658,
      "ç¼": 659,
      "äº§": 660,
      "èµ·": 661,
      "çĥ": 662,
      "ç»ĵ": 663,
      "åķ": 664,
      "ä»Ģä¹Ī": 665,
      "æĬĢæľ¯": 666,
      "å¸®": 667,
      "èº": 668,
      "åıĬ": 669,
      "è¯Ŀ": 670,
      "éĥ¨": 671,
      "çĽ®": 672,
      "éĤ£": 673,
      "èĭ": 674,
      "ç¬": 675,
      "ä½ķ": 676,
      "éķ¿": 677,
      "éĿŀå¸¸": 678,
      "èį": 679,
      "åĬ¡": 680,
      "ç®Ĺ": 681,
      "æ¯ı": 682,
      "èº«": 683,
      "çĭ": 684,
      "è¢«": 685,
      "åģ¥": 686,
      "ç§ĳ": 687,
      "æĹ¥": 688,
      "å°ĳ": 689,
      "å·±": 690,
      "åīį": 691,
      "åĻ": 692,
      "æĭ¬": 693,
      "éħ": 694,
      "éĢĤ": 695,
      "åĸľ": 696,
      "èĩªå·±": 697,
      "åľº": 698,
      "å®¹": 699,
      "åıĹ": 700,
      "åı¯èĥ½": 701,
      "æĹł": 702,
      "åĽŀ": 703,
      "æ¬¢": 704,
      "ä¿¡æģ¯": 705,
      "éĢī": 706,
      "ä»ĸä»¬": 707,
      "åĻ¨": 708,
      "åĮ»": 709,
      "äº¤": 710,
      "å¥½çļĦ": 711,
      "ä»£": 712,
      "åŀĭ": 713,
      "é¢Ĩ": 714,
      "åĪ«": 715,
      "èĻ": 716,
      "çł": 717,
      "å¤Ħ": 718,
      "çĶµå½±": 719,
      "çŃĶ": 720,
      "è¨": 721,
      "é¥": 722,
      "çĪ": 723,
      "éª": 724,
      "æ¶": 725,
      "ä½į": 726,
      "åĪ©": 727,
      "è´¨": 728,
      "æ»": 729,
      "è®®": 730,
      "é£İ": 731,
      "å¢ĥ": 732,
      "å¹³": 733,
      "ä¸¤": 734,
      "æ¡Ī": 735,
      "æīĭ": 736,
      "çĹ": 737,
      "å§": 738,
      "ä¾ĭ": 739,
      "è¿ĻäºĽ": 740,
      "éĩįè¦ģ": 741,
      "éĢļè¿ĩ": 742,
      "å¦Ĥæŀľ": 743,
      "ä¸ŃçļĦ": 744,
      "éŁ": 745,
      "ä»»": 746,
      "åĵį": 747,
      "ä»¶": 748,
      "çĶŁæĪĲ": 749,
      "åĮħæĭ¬": 750,
      "è®º": 751,
      "åŃĹ": 752,
      "åı¸": 753,
      "åŁŁ": 754,
      "åıĳå±ķ": 755,
      "è¨Ģ": 756,
      "çĻ": 757,
      "åºĶçĶ¨": 758,
      "å°ıæĺİ": 759,
      "å°±": 760,
      "æłĩ": 761,
      "ç®Ģ": 762,
      "æ±Ĥ": 763,
      "æ²¡": 764,
      "åĪĽ": 765,
      "åįķ": 766,
      "åĨ³": 767,
      "è§Ĥ": 768,
      "æĶ¹": 769,
      "æĶ¾": 770,
      "æİ¨": 771,
      "æ¸¸": 772,
      "èĪ": 773,
      "çģ": 774,
      "åıª": 775,
      "æľª": 776,
      "è®¾": 777,
      "å½±åĵį": 778,
      "çŁ¥": 779,
      "åº·": 780,
      "ç»Ł": 781,
      "æĹ¶éĹ´": 782,
      "ä¸ī": 783,
      "æĢ»": 784,
      "å¸®åĬ©": 785,
      "ç¥": 786,
      "æľŁ": 787,
      "é»": 788,
      "å£": 789,
      "åĸľæ¬¢": 790,
      "æº": 791,
      "ä¹Ĳ": 792,
      "èĬĤ": 793,
      "åħ¬åı¸": 794,
      "æıı": 795,
      "æķĪ": 796,
      "è¯Ĩ": 797,
      "åģ¥åº·": 798,
      "æµ·": 799,
      "æ¨": 800,
      "å¼º": 801,
      "å¤Ł": 802,
      "èĥ": 803,
      "ç»Ļå®ļ": 804,
      "ç¤¾": 805,
      "æĸŃ": 806,
      "åĩı": 807,
      "äººç±»": 808,
      "æĳ": 809,
      "æ³¨": 810,
      "æŀģ": 811,
      "å®ī": 812,
      "é¢ĨåŁŁ": 813,
      "çĶŁæ´»": 814,
      "æ¼": 815,
      "æľį": 816,
      "è¾¾": 817,
      "æ·±": 818,
      "çĶ±": 819,
      "æł·": 820,
      "çĸĹ": 821,
      "åĽłæŃ¤": 822,
      "çİ¯å¢ĥ": 823,
      "ä¸įåĲĮ": 824,
      "æŃ¥": 825,
      "å·¥ä½ľ": 826,
      "æĺŁ": 827,
      "è±": 828,
      "èĦ": 829,
      "é©": 830,
      "éŁ³": 831,
      "å¤ª": 832,
      "æķ°æį®": 833,
      "æµģ": 834,
      "å½¢": 835,
      "åİŁ": 836,
      "åģļ": 837,
      "ä¸ĸ": 838,
      "å·²": 839,
      "èİ": 840,
      "æıĲåıĸ": 841,
      "æĻ¯": 842,
      "è½¦": 843,
      "åıĭ": 844,
      "æııè¿°": 845,
      "æ²¡æľī": 846,
      "å¸¦": 847,
      "æĪ·": 848,
      "åĽłä¸º": 849,
      "å¯¼": 850,
      "è¿Ĳ": 851,
      "æ¬¡": 852,
      "åĳĺ": 853,
      "çĮ": 854,
      "ç²": 855,
      "éĴ": 856,
      "èı": 857,
      "å»ºè®®": 858,
      "æ¨¡": 859,
      "æĸĻ": 860,
      "éĶ®": 861,
      "æıĲé«ĺ": 862,
      "è¯ķ": 863,
      "èĩªçĦ¶": 864,
      "å®ĥä»¬": 865,
      "æī¾": 866,
      "ãĢĭ": 867,
      "åŁº": 868,
      "ãĢĬ": 869,
      "å¦Ĥä½ķ": 870,
      "è®¤": 871,
      "åİĨ": 872,
      "ä¹ī": 873,
      "åŁİ": 874,
      "æĽ´åĬł": 875,
      "å¥¹": 876,
      "ä¼ł": 877,
      "æºĲ": 878,
      "ä¸»è¦ģ": 879,
      "åĲĦ": 880,
      "åħ³éĶ®": 881,
      "ç¤º": 882,
      "æĬ¤": 883,
      "æĭ©": 884,
      "æĮĩ": 885,
      "åºĶè¯¥": 886,
      "åĲĳ": 887,
      "éĢł": 888,
      "æł¼": 889,
      "ç»Ħ": 890,
      "éĢīæĭ©": 891,
      "çķĮ": 892,
      "åħī": 893,
      "çļĦæķ": 894,
      "æĸ¹å¼ı": 895,
      "æĹħ": 896,
      "åĲĮæĹ¶": 897,
      "è¿ĳ": 898,
      "èĥ½å¤Ł": 899,
      "ç¯ĩæĸĩç«ł": 900,
      "èĲ½": 901,
      "ç©¶": 902,
      "è£": 903,
      "åĨħå®¹": 904,
      "è°ĥ": 905,
      "äººä»¬": 906,
      "åı£": 907,
      "çĪ±": 908,
      "ï¼Ľ": 909,
      "è¯Ńè¨Ģ": 910,
      "è§Ĩ": 911,
      "åĳ³": 912,
      "ç©º": 913,
      "çº¢": 914,
      "åĮº": 915,
      "èĢĥ": 916,
      "ä»·": 917,
      "åĲĹ": 918,
      "åħ³äºİ": 919,
      "çĬ": 920,
      "ç½ĳ": 921,
      "èĬ±": 922,
      "åĳĬ": 923,
      "æĺ¯ä¸Ģä¸ª": 924,
      "ä¾ĭå¦Ĥ": 925,
      "æľªæĿ¥": 926,
      "çĹħ": 927,
      "é¤": 928,
      "è®¡ç®Ĺ": 929,
      "å¿«": 930,
      "å¹¿": 931,
      "æľºåĻ¨": 932,
      "ç®¡": 933,
      "æĸ¹æ³ķ": 934,
      "æĸ¹éĿ¢": 935,
      "é¢Ħ": 936,
      "å¢ŀ": 937,
      "ï¼ī": 938,
      "åķĨ": 939,
      "éªĮ": 940,
      "é¤Ĳ": 941,
      "æĢĿ": 942,
      "Ķç©¶": 943,
      "ç¦": 944,
      "ä¹¦": 945,
      "ä¸Ķ": 946,
      "åĩĨ": 947,
      "å®Į": 948,
      "åĩł": 949,
      "é¦ĸ": 950,
      "éĵ": 951,
      "å®¢": 952,
      "éĶĻ": 953,
      "åĪ°äºĨ": 954,
      "é¡¹": 955,
      "åħ¶ä»ĸ": 956,
      "ä¼ĺ": 957,
      "è¶Ĭ": 958,
      "ä»¥åıĬ": 959,
      "ä¸»é¢ĺ": 960,
      "é¸": 961,
      "å¼ķ": 962,
      "éĩĳ": 963,
      "è®¸": 964,
      "è¯Ħ": 965,
      "æļ": 966,
      "æ¸ħ": 967,
      "åħĪ": 968,
      "ç´ł": 969,
      "åĬŁ": 970,
      "æ£": 971,
      "å¤ĩ": 972,
      "è½»": 973,
      "æİ¥": 974,
      "è§ī": 975,
      "åĪĹ": 976,
      "ï¼Ī": 977,
      "è¯»": 978,
      "èµĦ": 979,
      "æĪĺ": 980,
      "èĮ": 981,
      "åĪĨç±»": 982,
      "å§ĭ": 983,
      "ä»Ĭ": 984,
      "ä¸ªäºº": 985,
      "éĺ³": 986,
      "çŁŃ": 987,
      "èĩ´": 988,
      "åŃĺ": 989,
      "åĵª": 990,
      "æµĭ": 991,
      "æķĻ": 992,
      "æĢģ": 993,
      "æ¸©": 994,
      "ç»Ń": 995,
      "åĢĻ": 996,
      "ï¼ģ": 997,
      "æľĭ": 998,
      "æŀĲ": 999,
      "ç¼ĸ": 1000,
      "ä¸ĸçķĮ": 1001,
      "åħ±": 1002,
      "ä½Ĩæĺ¯": 1003,
      "åĲ«": 1004,
      "æľĪ": 1005,
      "èıľ": 1006,
      "æľĭåıĭ": 1007,
      "çº¦": 1008,
      "åħĭ": 1009,
      "ç§¯": 1010,
      "ç«ĭ": 1011,
      "çİĩ": 1012,
      "åĽŀçŃĶ": 1013,
      "æĸĩåĮĸ": 1014,
      "åĪĨæŀĲ": 1015,
      "å¤ĦçĲĨ": 1016,
      "åı²": 1017,
      "ç»Ĩ": 1018,
      "çļĦæĥ": 1019,
      "ä¸Ģä¸ĭ": 1020,
      "æĶ¯": 1021,
      "åĩıå°ĳ": 1022,
      "åŁİå¸Ĥ": 1023,
      "è±¡": 1024,
      "å±±": 1025,
      "ä¹ĭä¸Ģ": 1026,
      "è¶³": 1027,
      "è¿Ļç¯ĩæĸĩç«ł": 1028,
      "ä¸ŃåĽ½": 1029,
      "æķ´": 1030,
      "åĲ¦": 1031,
      "å¤į": 1032,
      "ç¬¬": 1033,
      "åĪĻ": 1034,
      "æ»¡": 1035,
      "åĨµ": 1036,
      "ä¿ĿæĬ¤": 1037,
      "çłĶç©¶": 1038,
      "ĺè¦ģ": 1039,
      "èĳ": 1040,
      "åħĥ": 1041,
      "è§Ĵ": 1042,
      "ç¥ŀ": 1043,
      "é¥®": 1044,
      "20": 1045,
      "å·²ç»ı": 1046,
      "åĥ": 1047,
      "æľĽ": 1048,
      "è®¸å¤ļ": 1049,
      "æİ¢": 1050,
      "äºĨä¸Ģ": 1051,
      "èĩªå·±çļĦ": 1052,
      "ä¸¤ä¸ª": 1053,
      "ç³ĸ": 1054,
      "éĩĩ": 1055,
      "åıį": 1056,
      "ç¿": 1057,
      "è°¢": 1058,
      "èĢģ": 1059,
      "äº§åĵģ": 1060,
      "çº¿": 1061,
      "åĪĴ": 1062,
      "è¾ĵ": 1063,
      "çľŁ": 1064,
      "åĮ»çĸĹ": 1065,
      "æŃ¤å¤ĸ": 1066,
      "çĭĹ": 1067,
      "ç³»ç»Ł": 1068,
      "æĽ´å¤ļ": 1069,
      "è§Ħ": 1070,
      "å°½": 1071,
      "éĢŁ": 1072,
      "åĶ": 1073,
      "çħ": 1074,
      "è¶£": 1075,
      "è·¯": 1076,
      "éĻ©": 1077,
      "å¥³": 1078,
      "åıĤ": 1079,
      "çļĦäºº": 1080,
      "èģĶ": 1081,
      "åĲĥ": 1082,
      "ä¿ĿæĮģ": 1083,
      "ä»½": 1084,
      "æĸ¯": 1085,
      "è¥": 1086,
      "åħ¨çĲĥ": 1087,
      "æĺ¯ä¸Ģç§į": 1088,
      "æĬ¥": 1089,
      "æĺĵ": 1090,
      "çĽ´": 1091,
      "åĬ¨çī©": 1092,
      "Â·": 1093,
      "æľįåĬ¡": 1094,
      "çĻ½": 1095,
      "å¤´": 1096,
      "åĢ¼": 1097,
      "è¥¿": 1098,
      "æĸ½": 1099,
      "è§£åĨ³": 1100,
      "æİĴ": 1101,
      "æĪĲä¸º": 1102,
      "ħäºĭ": 1103,
      "åĨį": 1104,
      "åĥı": 1105,
      "çĥŃ": 1106,
      "çİ¯ä¿Ŀ": 1107,
      "ä»ĭ": 1108,
      "åĽ¾": 1109,
      "æ´»åĬ¨": 1110,
      "å²": 1111,
      "éļ¾": 1112,
      "ä¹°": 1113,
      "ä¾¿": 1114,
      "åĳ¨": 1115,
      "çļĦä¸Ģ": 1116,
      "æŁ¥": 1117,
      "æĪĸèĢħ": 1118,
      "èİ·": 1119,
      "è¾ĥ": 1120,
      "èĻĳ": 1121,
      "æŀĦ": 1122,
      "æĿ¡": 1123,
      "ç¤¾ä¼ļ": 1124,
      "å®īåħ¨": 1125,
      "10": 1126,
      "è¿ĲåĬ¨": 1127,
      "è§ģ": 1128,
      "çīĩ": 1129,
      "åĲ¬": 1130,
      "èº«ä½ĵ": 1131,
      "ç»ĻæĪĳ": 1132,
      "è¯Ĺ": 1133,
      "åıĳçİ°": 1134,
      "èĩ³": 1135,
      "æĲ": 1136,
      "çļĦæĥħ": 1137,
      "æ¼Ķ": 1138,
      "éħį": 1139,
      "éļı": 1140,
      "åıĺåĮĸ": 1141,
      "çİ°åľ¨": 1142,
      "ãĢĤâĢĿ": 1143,
      "æīĵ": 1144,
      "ç§ĳæĬĢ": 1145,
      "åħ¶ä¸Ń": 1146,
      "ç»ĥ": 1147,
      "åºı": 1148,
      "æĶ¶": 1149,
      "çĬ¶": 1150,
      "è®¤ä¸º": 1151,
      "å¼ł": 1152,
      "èĤ²": 1153,
      "å¤©æ°Ķ": 1154,
      "ä¸½": 1155,
      "ç´¢": 1156,
      "éĤ£ä¹Ī": 1157,
      "æĪĳä»¬çļĦ": 1158,
      "åĳ½": 1159,
      "ä¹ĭéĹ´": 1160,
      "äº«": 1161,
      "æĬĬ": 1162,
      "ç²¾": 1163,
      "è®°": 1164,
      "æ¶Ī": 1165,
      "¹æŀľ": 1166,
      "æħ": 1167,
      "åħħ": 1168,
      "èĥ½åĬĽ": 1169,
      "çĽ¸åħ³": 1170,
      "èĭ¹æŀľ": 1171,
      "äºĮ": 1172,
      "ä½łçļĦ": 1173,
      "åİĨåı²": 1174,
      "æĶ¿": 1175,
      "åĲ¸": 1176,
      "å¾Īå¤ļ": 1177,
      "åı¤": 1178,
      "çŃĸ": 1179,
      "å¡": 1180,
      "å¸¦æĿ¥": 1181,
      "çı": 1182,
      "æ¤": 1183,
      "æĳĺè¦ģ": 1184,
      "åĽŃ": 1185,
      "åħ·æľī": 1186,
      "è´Ń": 1187,
      "ç¢": 1188,
      "åħ´": 1189,
      "éĺŁ": 1190,
      "å¸Ī": 1191,
      "ä½İ": 1192,
      "çĮ«": 1193,
      "å¤±": 1194,
      "éĹ¨": 1195,
      "æ¬¾": 1196,
      "ç»´": 1197,
      "æ²»": 1198,
      "åį³": 1199,
      "ç»Ļå®ļçļĦ": 1200,
      "éĹ»": 1201,
      "ç§ĳåŃ¦": 1202,
      "ç§°": 1203,
      "å¸ĥ": 1204,
      "æ¢": 1205,
      "çĭ¬": 1206,
      "åħį": 1207,
      "æŃĮ": 1208,
      "è¯ī": 1209,
      "éĩĬ": 1210,
      "äºĴ": 1211,
      "èįĲ": 1212,
      "åĭ": 1213,
      "éŁ³ä¹Ĳ": 1214,
      "ç»Ļåĩº": 1215,
      "å°Ŀ": 1216,
      "çļĦæĦ": 1217,
      "¦Ĥ": 1218,
      "çŃĶæ¡Ī": 1219,
      "æīį": 1220,
      "æĿĲ": 1221,
      "è¿Ļç§į": 1222,
      "è®¾è®¡": 1223,
      "ç§¯æŀģ": 1224,
      "ç»į": 1225,
      "å¼Ģå§ĭ": 1226,
      "ä»»åĬ¡": 1227,
      "èĲ¥": 1228,
      "æĿ¾": 1229,
      "äºĨè§£": 1230,
      "éĽĨ": 1231,
      "è¡¨è¾¾": 1232,
      "ä»ĭç»į": 1233,
      "ä¸ŃæıĲåıĸ": 1234,
      "åı¥è¯Ŀ": 1235,
      "çļĦå½±åĵį": 1236,
      "å¯¼èĩ´": 1237,
      "å¯Į": 1238,
      "è¯¯": 1239,
      "åŃ£": 1240,
      "å¿ħ": 1241,
      "å¨": 1242,
      "èĽ": 1243,
      "å¯¹äºİ": 1244,
      "æ¨¡åŀĭ": 1245,
      "åħ·ä½ĵ": 1246,
      "è®¡ç®Ĺæľº": 1247,
      "èĭ±": 1248,
      "çĶ·": 1249,
      "æĥħæĦŁ": 1250,
      "æľºåĻ¨åŃ¦ä¹ł": 1251,
      "çĲĨè§£": 1252,
      "æİ¨èįĲ": 1253,
      "çļĦæĬ": 1254,
      "è½¬": 1255,
      "å®ŀçİ°": 1256,
      "æľĢè¿ĳ": 1257,
      "æĸ°çļĦ": 1258,
      "æĺ¯åĲ¦": 1259,
      "éĢļå¸¸": 1260,
      "åı·": 1261,
      "åįĩ": 1262,
      "åİĭ": 1263,
      "è®¨": 1264,
      "é¦Ļ": 1265,
      "éĻ¤": 1266,
      "èµĽ": 1267,
      "è®²": 1268,
      "åĬ¿": 1269,
      "ä¸ĵ": 1270,
      "ä»Ĭå¤©": 1271,
      "æĽ´å¥½": 1272,
      "èĤī": 1273,
      "é²": 1274,
      "åĮĹ": 1275,
      "ä¸įæĸŃ": 1276,
      "åĲĦç§į": 1277,
      "ä¿®": 1278,
      "æĿİ": 1279,
      "è´¹": 1280,
      "é»ĳ": 1281,
      "éĶĢ": 1282,
      "æ°ĳ": 1283,
      "åľ°çĲĥ": 1284,
      "è®¡åĪĴ": 1285,
      "å¸Ĥåľº": 1286,
      "è£ħ": 1287,
      "åįİ": 1288,
      "æĪı": 1289,
      "åįģ": 1290,
      "åħ³éĶ®è¯į": 1291,
      "åĳĬè¯ī": 1292,
      "è¯ģ": 1293,
      "æŁĵ": 1294,
      "åħ»": 1295,
      "çļĦéĹ®é¢ĺ": 1296,
      "æīĢæľī": 1297,
      "ä¸Ģæ®µ": 1298,
      "é©¬": 1299,
      "èħ": 1300,
      "åĸĦ": 1301,
      "åĽ´": 1302,
      "æīĢä»¥": 1303,
      "çĶ¨æĪ·": 1304,
      "æ³¨æĦı": 1305,
      "èīº": 1306,
      "æĻļ": 1307,
      "ç»Ī": 1308,
      "æĪĳçļĦ": 1309,
      "åįķè¯į": 1310,
      "å¯»": 1311,
      "è¯ĨåĪ«": 1312,
      "éĢĤåĲĪ": 1313,
      "å¤ı": 1314,
      "ä¸Ģèµ·": 1315,
      "æİ§": 1316,
      "ç¦»": 1317,
      "å¸Į": 1318,
      "æŃ£åľ¨": 1319,
      "çª": 1320,
      "AI": 1321,
      "æĪĳä»¬åı¯ä»¥": 1322,
      "èĳĹ": 1323,
      "å¾ĭ": 1324,
      "éĻħ": 1325,
      "éĺ²": 1326,
      "æĸ°éĹ»": 1327,
      "æ¯Ķå¦Ĥ": 1328,
      "è¶ħ": 1329,
      "ä»ĸçļĦ": 1330,
      "åĽĽ": 1331,
      "è¿ľ": 1332,
      "å¤ªéĺ³": 1333,
      "åŃ©": 1334,
      "è¦ģæ±Ĥ": 1335,
      "çŁ¥éģĵ": 1336,
      "çļĦæĺ¯": 1337,
      "æĹłæ³ķ": 1338,
      "å°Ķ": 1339,
      "å¹¶ä¸Ķ": 1340,
      "ä¸Ģç§į": 1341,
      "å·§": 1342,
      "æĦŁåĪ°": 1343,
      "æŀĹ": 1344,
      "æ³Ľ": 1345,
      "å£°": 1346,
      "æĴ": 1347,
      "èµ°": 1348,
      "åĳ¢": 1349,
      "åħ³ç³»": 1350,
      "æŁĲ": 1351,
      "å°ıè¯´": 1352,
      "çĦ¶åĲİ": 1353,
      "åı¦": 1354,
      "ä»ħ": 1355,
      "ï¼ļâĢľ": 1356,
      "è´Ł": 1357,
      "æĹħæ¸¸": 1358,
      "è¿ĩç¨ĭ": 1359,
      "åįĹ": 1360,
      "æ¯ıä¸ª": 1361,
      "å£«": 1362,
      "ç½®": 1363,
      "åŃĺåľ¨": 1364,
      "æĢ»ç»ĵ": 1365,
      "å¤§çļĦ": 1366,
      "åİħ": 1367,
      "èģĮ": 1368,
      "è§£éĩĬ": 1369,
      "èĢĥèĻĳ": 1370,
      "å¾·": 1371,
      "æĪĲåĬŁ": 1372,
      "æĭī": 1373,
      "è´¨éĩı": 1374,
      "è¾¹": 1375,
      "æĹ©": 1376,
      "çļĦæ°": 1377,
      "ç®¡çĲĨ": 1378,
      "éĻį": 1379,
      "èĽĭ": 1380,
      "çļĦæĢ": 1381,
      "åŃ¦çĶŁ": 1382,
      "æĺ¾": 1383,
      "ĳæĪĺ": 1384,
      "åĦ": 1385,
      "æĪ¿": 1386,
      "çŃīçŃī": 1387,
      "èŀ": 1388,
      "ªæĸ½": 1389,
      "æ®µèĲ½": 1390,
      "è¡Įä¸º": 1391,
      "ç¾İåĽ½": 1392,
      "ä¸ľ": 1393,
      "æĪĳæĥ³": 1394,
      "éĶĻè¯¯": 1395,
      "åĮ»çĶŁ": 1396,
      "å¢ŀåĬł": 1397,
      "ä¸Ģç¯ĩ": 1398,
      "è¾ĳ": 1399,
      "çĨ": 1400,
      "ä¼¼": 1401,
      "å°Ŀè¯ķ": 1402,
      "äºĶ": 1403,
      "çħ§": 1404,
      "å¯¹è¯Ŀ": 1405,
      "å®ĮæĪĲ": 1406,
      "æ¦Ĥ": 1407,
      "å¯Ĩ": 1408,
      "çİ©": 1409,
      "æĺ¯ä»Ģä¹Ī": 1410,
      "å¹¿æ³Ľ": 1411,
      "ç±³": 1412,
      "ä¸ĭéĿ¢": 1413,
      "ä½ľä¸º": 1414,
      "åĪ©çĶ¨": 1415,
      "çĶ»": 1416,
      "è¿Ļæ®µ": 1417,
      "ä¸įåĲĮçļĦ": 1418,
      "çģ«": 1419,
      "èĩªåĬ¨": 1420,
      "æľĢåĲİ": 1421,
      "é¥®é£Ł": 1422,
      "æĭ¥": 1423,
      "æļĸ": 1424,
      "çİĭ": 1425,
      "éģ¿": 1426,
      "åĴĸ": 1427,
      "å½ĵçĦ¶": 1428,
      "æ¿": 1429,
      "é£Łçī©": 1430,
      "è®Ń": 1431,
      "çļĦåıĳå±ķ": 1432,
      "å®³": 1433,
      "å¾ĹåĪ°": 1434,
      "æµİ": 1435,
      "åı°": 1436,
      "æĽ´å¥½åľ°": 1437,
      "åĽ¢": 1438,
      "ç¡®ä¿Ŀ": 1439,
      "å¿µ": 1440,
      "åı¯èĥ½ä¼ļ": 1441,
      "çļĦåľ°": 1442,
      "çļĦæķ°": 1443,
      "ä¼ģ": 1444,
      "çļĦä¿¡æģ¯": 1445,
      "ãĢĤ\\": 1446,
      "ä»»ä½ķ": 1447,
      "æ°ĶåĢĻ": 1448,
      "äºļ": 1449,
      "ç®Ĺæ³ķ": 1450,
      "åķ¡": 1451,
      "èŀį": 1452,
      "çļĦåºĶçĶ¨": 1453,
      "äº¬": 1454,
      "ä¸įæĺ¯": 1455,
      "æłĩé¢ĺ": 1456,
      "äº§çĶŁ": 1457,
      "éĻĲ": 1458,
      "æĤ¨çļĦ": 1459,
      "åĴĸåķ¡": 1460,
      "æĥħåĨµ": 1461,
      "æ´ģ": 1462,
      "æĵ": 1463,
      "å®¤": 1464,
      "å¸ĮæľĽ": 1465,
      "æķħäºĭ": 1466,
      "èįī": 1467,
      "èİ·å¾Ĺ": 1468,
      "æį¢": 1469,
      "è¿ĺæľī": 1470,
      "åł": 1471,
      "éĽ¨": 1472,
      "äººçļĦ": 1473,
      "ç»ľ": 1474,
      "äº¤éĢļ": 1475,
      "æĢİ": 1476,
      "å·´": 1477,
      "è¾ĵåħ¥": 1478,
      "çĽ®æłĩ": 1479,
      "åĦ¿": 1480,
      "ç»ıæµİ": 1481,
      "è¿Ļæł·": 1482,
      "çĶŁæĪĲä¸Ģä¸ª": 1483,
      "å¹²": 1484,
      "é»Ħ": 1485,
      "è¡¨ç¤º": 1486,
      "é¦ĸåħĪ": 1487,
      "çĶ¨äºİ": 1488,
      "åı¯ä»¥å¸®åĬ©": 1489,
      "éħĴ": 1490,
      "è¡£": 1491,
      "é£ŀ": 1492,
      "éĥ½æĺ¯": 1493,
      "ç³ĸæŀľ": 1494,
      "ä¼Ĺ": 1495,
      "å¾ģ": 1496,
      "æľīæķĪ": 1497,
      "é¤Ĳåİħ": 1498,
      "çļĦä¸»è¦ģ": 1499,
      "ä½łåı¯ä»¥": 1500,
      "éĺħ": 1501,
      "åĮħåĲ«": 1502,
      "çīĽ": 1503,
      "çļĦæł": 1504,
      "ç©¿": 1505,
      "åºĹ": 1506,
      "æĹħè¡Į": 1507,
      "æī¾åĪ°": 1508,
      "å¾Ģ": 1509,
      "æķĻèĤ²": 1510,
      "å±ŀ": 1511,
      "åºŃ": 1512,
      "ç»ĵæŀľ": 1513,
      "ç®Ģåįķ": 1514,
      "¡æŁĵ": 1515,
      "éľĢæ±Ĥ": 1516,
      "æ¸¸æĪı": 1517,
      "æ¿Ģ": 1518,
      "çļĦéĩįè¦ģ": 1519,
      "éĥ¨åĪĨ": 1520,
      "éº": 1521,
      "åĳĬè¯īæĪĳ": 1522,
      "ä½¿åħ¶": 1523,
      "åĿĩ": 1524,
      "éģ¿åħį": 1525,
      "éĩĩåıĸ": 1526,
      "æ©": 1527,
      "å±ħ": 1528,
      "æ½": 1529,
      "è§ĤçĤ¹": 1530,
      "åĩłä¸ª": 1531,
      "æİªæĸ½": 1532,
      "ç½ĳç»ľ": 1533,
      "åĪ¶ä½ľ": 1534,
      "çīĮ": 1535,
      "åĩĨç¡®": 1536,
      "ä¹Łæĺ¯": 1537,
      "æľīåħ³": 1538,
      "å¾®": 1539,
      "ä»¤": 1540,
      "äºī": 1541,
      "æĮģç»Ń": 1542,
      "æĶ¯æĮģ": 1543,
      "èĥ½æºĲ": 1544,
      "ä¸ĩ": 1545,
      "ä½ĵéªĮ": 1546,
      "åª": 1547,
      "é±": 1548,
      "èµ·æĿ¥": 1549,
      "äºĨä¸Ģä¸ª": 1550,
      "é±¼": 1551,
      "ä½ľçĶ¨": 1552,
      "åī§": 1553,
      "ä¼ģä¸ļ": 1554,
      "è¡¨çİ°": 1555,
      "éĩįè¦ģçļĦ": 1556,
      "ç«Ļ": 1557,
      "ç»¿": 1558,
      "ä¸įèĥ½": 1559,
      "çĽĬ": 1560,
      "é¼": 1561,
      "çĳ": 1562,
      "æłĳ": 1563,
      "åıĳçĶŁ": 1564,
      "ä»ĸä»¬çļĦ": 1565,
      "ä¹Łåı¯ä»¥": 1566,
      "00": 1567,
      "èĵ": 1568,
      "èī¯": 1569,
      "éĺħè¯»": 1570,
      "åĪĩ": 1571,
      "å°ıçº¢": 1572,
      "èĩªçĦ¶è¯Ńè¨Ģ": 1573,
      "æ¤į": 1574,
      "¾çĹħ": 1575,
      "é¾": 1576,
      "çĶ±äºİ": 1577,
      "çİ°ä»£": 1578,
      "ä¸īä¸ª": 1579,
      "å¤ľ": 1580,
      "åĵªäºĽ": 1581,
      "åĪ¤": 1582,
      "ç¤¾äº¤": 1583,
      "å®Ŀ": 1584,
      "å¾ħ": 1585,
      "ç¬¦": 1586,
      "æ²¹": 1587,
      "æĭ¥æľī": 1588,
      "åŁºäºİ": 1589,
      "å¥¶": 1590,
      "âĢĿï¼Į": 1591,
      "æ¹": 1592,
      "åĬłåħ¥": 1593,
      "åħ³æ³¨": 1594,
      "çº§": 1595,
      "å¥ĩ": 1596,
      "è¿ĺæĺ¯": 1597,
      "èī²çļĦ": 1598,
      "ç»ĩ": 1599,
      "è¯Ĭ": 1600,
      "æ±¡æŁĵ": 1601,
      "åıĪ": 1602,
      "å¦Ĥæŀľä½ł": 1603,
      "é¢ľ": 1604,
      "éģĩ": 1605,
      "åĬª": 1606,
      "ä¸¾": 1607,
      "åºľ": 1608,
      "åĿĹ": 1609,
      "ï¼Ł<|": 1610,
      "é¦Ĩ": 1611,
      "åĩºçİ°": 1612,
      "è¿ŀ": 1613,
      "çļĦæĸĩç«ł": 1614,
      "ä¸°": 1615,
      "é¸¡": 1616,
      "ç±»åŀĭ": 1617,
      "ä»¥ä¸ĭåı¥åŃĲ": 1618,
      "ç¡®å®ļ": 1619,
      "åĪ»": 1620,
      "å®¶åºŃ": 1621,
      "æĮĳæĪĺ": 1622,
      "æĺ¥": 1623,
      "å®¢æĪ·": 1624,
      "èµĦæºĲ": 1625,
      "çļĦæİ": 1626,
      "åĬªåĬĽ": 1627,
      "åĶ®": 1628,
      "è½¯": 1629,
      "ç¿»": 1630,
      "èĪĴ": 1631,
      "èį¯": 1632,
      "è®Ńç»ĥ": 1633,
      "æİ§åĪ¶": 1634,
      "èĻ½": 1635,
      "æľīè¶£": 1636,
      "éĿĻ": 1637,
      "æĢ§åĴĮ": 1638,
      "æķ£": 1639,
      "è¿½": 1640,
      "åĬŁèĥ½": 1641,
      "è¿Ļæĺ¯": 1642,
      "ä»İèĢĮ": 1643,
      "èĦĳ": 1644,
      "çļĦæĬĢ": 1645,
      "æŃ£ç¡®": 1646,
      "åıĹåĪ°": 1647,
      "æĸ¹æ¡Ī": 1648,
      "çļĦåı¥åŃĲ": 1649,
      "çļĦæĻ": 1650,
      "ä¸ºäºĨ": 1651,
      "ç§ĭ": 1652,
      "é¸Ł": 1653,
      "æ£Ģ": 1654,
      "ä¸¥": 1655,
      "æĬķ": 1656,
      "éŃ": 1657,
      "èŃ": 1658,
      "è§Ĵèī²": 1659,
      "æ²»çĸĹ": 1660,
      "æĤ¨åı¯ä»¥": 1661,
      "åħ¸": 1662,
      "çĸ¾çĹħ": 1663,
      "é¢Ħæµĭ": 1664,
      "èīºæľ¯": 1665,
      "å±Ĥ": 1666,
      "æ²Ļ": 1667,
      "çļĦç¾": 1668,
      "å½Ĵ": 1669,
      "åİĭåĬĽ": 1670,
      "ç¨ĭåºı": 1671,
      "æ¯Ķè¾ĥ": 1672,
      "æķĪçİĩ": 1673,
      "æİ¢ç´¢": 1674,
      "åģĩ": 1675,
      "äºĳ": 1676,
      "è¯¦": 1677,
      "äººå·¥æĻºèĥ½æĬĢæľ¯": 1678,
      "äºĭä»¶": 1679,
      "èĮĥ": 1680,
      "èĶ": 1681,
      "ä¸ĬçļĦ": 1682,
      "æĤ£": 1683,
      "æĿ¯": 1684,
      "è´Ńä¹°": 1685,
      "ä¼łç»Ł": 1686,
      "æĿĤ": 1687,
      "çļĦæĦı": 1688,
      "çŁ³": 1689,
      "èĻ½çĦ¶": 1690,
      "éĻ¢": 1691,
      "æľĢç»Ī": 1692,
      "éĨ": 1693,
      "ä¸įä»ħ": 1694,
      "æĿ¥è¶Ĭ": 1695,
      "æ°ĶåĢĻåıĺåĮĸ": 1696,
      "çĶŁçī©": 1697,
      "çĶŁåĳ½": 1698,
      "é²ľ": 1699,
      "è¶ĬæĿ¥è¶Ĭ": 1700,
      "æĮī": 1701,
      "ç¦ı": 1702,
      "çĶµåŃĲ": 1703,
      "æīįèĥ½": 1704,
      "æµª": 1705,
      "æĪĳä»¬éľĢè¦ģ": 1706,
      "éļıçĿĢ": 1707,
      "é£İéĻ©": 1708,
      "æ¥": 1709,
      "å°±æĺ¯": 1710,
      "æĽ²": 1711,
      "ä¸Ģä»½": 1712,
      "æ´ĭ": 1713,
      "è¯Ħè®º": 1714,
      "çķ¥": 1715,
      "æ±½": 1716,
      "åªĴ": 1717,
      "çĥ¤": 1718,
      "ä¸´": 1719,
      "ç¼º": 1720,
      "åĽ°": 1721,
      "ä¸Ģä½į": 1722,
      "åį¡": 1723,
      "è·ĳ": 1724,
      "æĿ¥è¯´": 1725,
      "çĵ": 1726,
      "èĥĮ": 1727,
      "åı¶": 1728,
      "åĨ°": 1729,
      "æĢİä¹Ī": 1730,
      "å»ºç«ĭ": 1731,
      "ç¼ĸè¾ĳ": 1732,
      "ä¸°å¯Į": 1733,
      "åĪĽéĢł": 1734,
      "æĶ¿åºľ": 1735,
      "åİŁåĽł": 1736,
      "æĻ®": 1737,
      "å½©": 1738,
      "ä»·åĢ¼": 1739,
      "èĩªçĦ¶è¯Ńè¨Ģå¤ĦçĲĨ": 1740,
      "è¯¦ç»Ĩ": 1741,
      "æĿĥ": 1742,
      "åĿļ": 1743,
      "èĵĿ": 1744,
      "æł¡": 1745,
      "çļĦæī": 1746,
      "æ°´æŀľ": 1747,
      "æ¯ĶèµĽ": 1748,
      "åĳ¼": 1749,
      "æĽ´å¤ļçļĦ": 1750,
      "çļĦç¾İ": 1751,
      "åĽłç´ł": 1752,
      "çĶŁæĢģ": 1753,
      "è¡¨æĺİ": 1754,
      "å¤ļå°ĳ": 1755,
      "ä½ľèĢħ": 1756,
      "è¯Ńæ³ķ": 1757,
      "äº²": 1758,
      "èľ": 1759,
      "æĸĩæ¡Ī": 1760,
      "æĹ¶åĢĻ": 1761,
      "ä¹ĭéĹ´çļĦ": 1762,
      "è¯ĬæĸŃ": 1763,
      "ç¬Ķ": 1764,
      "æĶ¹åıĺ": 1765,
      "æĹı": 1766,
      "ç»Ħç»ĩ": 1767,
      "åħ¬åĽŃ": 1768,
      "åĩĨå¤ĩ": 1769,
      "ä»¥ä¸ĭæĸĩæľ¬": 1770,
      "è¿ĺåı¯ä»¥": 1771,
      "åĬŀ": 1772,
      "å³": 1773,
      "èĴ": 1774,
      "æľºä¼ļ": 1775,
      "é¢ĺçĽ®": 1776,
      "è¯·éĹ®": 1777,
      "ä½ı": 1778,
      "ä¿ĥ": 1779,
      "é¢Ĺ": 1780,
      "çļĦæĥħæĦŁ": 1781,
      "çªģ": 1782,
      "æĿĲæĸĻ": 1783,
      "çĶŁäº§": 1784,
      "çĽĳ": 1785,
      "ç¼ĵ": 1786,
      "éĴŁ": 1787,
      "åĲįç§°": 1788,
      "è¿İ": 1789,
      "é£İæł¼": 1790,
      "ç»ĵæŀĦ": 1791,
      "çķĻ": 1792,
      "å°¼": 1793,
      "çĻ¾": 1794,
      "çļĦæĸ¹æ³ķ": 1795,
      "å½ĵåľ°": 1796,
      "å¹´è½»": 1797,
      "ç»ıéªĮ": 1798,
      "å®ĥçļĦ": 1799,
      "çī¹å¾ģ": 1800,
      "åıĺå¾Ĺ": 1801,
      "çĸ«": 1802,
      "æ³¢": 1803,
      "äº®": 1804,
      "çłģ": 1805,
      "é£Łåĵģ": 1806,
      "çĤ¼": 1807,
      "è¡Įä¸ļ": 1808,
      "åľ¨è¿Ļä¸ª": 1809,
      "åķĨåĵģ": 1810,
      "äº«åıĹ": 1811,
      "å¤§éĩı": 1812,
      "é¢ľèī²": 1813,
      "å¯»æī¾": 1814,
      "åªĴä½ĵ": 1815,
      "å¦ĤæŀľæĤ¨": 1816,
      "è¡¡": 1817,
      "å¼Ĥ": 1818,
      "å¿ĥçĲĨ": 1819,
      "çļĦæµ": 1820,
      "ç½Ĺ": 1821,
      "çļĦæĸĩæľ¬": 1822,
      "éĿĴ": 1823,
      "æĭŁ": 1824,
      "æľ¨": 1825,
      "åĤ": 1826,
      "è®¨è®º": 1827,
      "è¡ĮåĬ¨": 1828,
      "è´£": 1829,
      "çļ®": 1830,
      "æ´²": 1831,
      "åĲ§": 1832,
      "é¡»": 1833,
      "è´ŁéĿ¢": 1834,
      "ä¸Ģå®ļ": 1835,
      "åħħæ»¡": 1836,
      "åıĤåĬł": 1837,
      "å¨ģ": 1838,
      "ä¸ºä»Ģä¹Ī": 1839,
      "ĥåľ": 1840,
      "âĢĿãĢĤ": 1841,
      "å¼Ģåıĳ": 1842,
      "è¯ĳ": 1843,
      "èĳĹåĲį": 1844,
      "ä»·æł¼": 1845,
      "æ¯ıä¸ªäºº": 1846,
      "åŀĥåľ": 1847,
      "åŀĥåľ¾": 1848,
      "ä¼¤": 1849,
      "éĥ¨çĶµå½±": 1850,
      "æ¯ıå¤©": 1851,
      "ä¸Ńå¿ĥ": 1852,
      "å·¥åħ·": 1853,
      "çŁ¥è¯Ĩ": 1854,
      "ĊĊ": 1855,
      "ãĢĤ\"": 1856,
      "æ±½è½¦": 1857,
      "ä¸ĢæŃ¥": 1858,
      "è®¾å¤ĩ": 1859,
      "æ¯į": 1860,
      "ç¾¤": 1861,
      "æ»©": 1862,
      "åħ´è¶£": 1863,
      "åĩºäºĨ": 1864,
      "èĶ¬": 1865,
      "ç´§": 1866,
      "åĮĹäº¬": 1867,
      "åľºæĻ¯": 1868,
      "ä½ľåĵģ": 1869,
      "åĵģçīĮ": 1870,
      "ä¸ĵä¸ļ": 1871,
      "ä»į": 1872,
      "æĶ¹åĸĦ": 1873,
      "åľŁ": 1874,
      "éĤ®": 1875,
      "è¿Ļä¸ªéĹ®é¢ĺ": 1876,
      "çļĦæ¸": 1877,
      "æł¹æį®ç»Ļå®ļçļĦ": 1878,
      "æĽ¿": 1879,
      "çļĦæķħäºĭ": 1880,
      "æĪĳä¼ļ": 1881,
      "è®²è¿°": 1882,
      "è¿Ļåı¥è¯Ŀ": 1883,
      "ç¾İä¸½": 1884,
      "çļĦæŃ": 1885,
      "çļĦæĶ": 1886,
      "å¸®æĪĳ": 1887,
      "éĩİ": 1888,
      "èĪĴéĢĤ": 1889,
      "åĪĽæĸ°": 1890,
      "éĺ¿": 1891,
      "çľł": 1892,
      "ä¸ĢçĽ´": 1893,
      "æīĭæľº": 1894,
      "ç§ĺ": 1895,
      "åº§": 1896,
      "æ¼«": 1897,
      "æ·±åº¦": 1898,
      "è¯¢": 1899,
      "åĩ»": 1900,
      "çļĦçĶµå½±": 1901,
      "æĶ¾æĿ¾": 1902,
      "é¡¹çĽ®": 1903,
      "åŃ©åŃĲ": 1904,
      "èĥľ": 1905,
      "çģµ": 1906,
      "çŃĳ": 1907,
      "éĢłæĪĲ": 1908,
      "æħ¢": 1909,
      "éĢĲ": 1910,
      "å·ŀ": 1911,
      "è¶ĭ": 1912,
      "éĩįæĸ°": 1913,
      "19": 1914,
      "éĩĳèŀį": 1915,
      "è§īå¾Ĺ": 1916,
      "å·¨": 1917,
      "ä¼ĳ": 1918,
      "çł´": 1919,
      "ä»¥ä¸ĭæĺ¯": 1920,
      "çĩ": 1921,
      "äºĭæĥħ": 1922,
      "åĲ¸å¼ķ": 1923,
      "åĪ¤æĸŃ": 1924,
      "åĨ³å®ļ": 1925,
      "èģĬ": 1926,
      "èĶ¬èıľ": 1927,
      "éĢģ": 1928,
      "å½ķ": 1929,
      "æ¤įçī©": 1930,
      "çļĦçŁ": 1931,
      "çĹĩ": 1932,
      "èĢĮä¸Ķ": 1933,
      "çĿ¡": 1934,
      "ä¸ŃæıĲåıĸåĩº": 1935,
      "èŃ¦": 1936,
      "æķ°åŃĹ": 1937,
      "åį°": 1938,
      "åĨĽ": 1939,
      "éĶ»": 1940,
      "åįı": 1941,
      "å·®": 1942,
      "åī©": 1943,
      "åı¦å¤ĸ": 1944,
      "éļĲ": 1945,
      "éĶ»çĤ¼": 1946,
      "ä½³": 1947,
      "æŃ¢": 1948,
      "æĪĳåı¯ä»¥": 1949,
      "é©¶": 1950,
      "ä¸Ģæ¬¡": 1951,
      "æ¸Ĳ": 1952,
      "æĢ§çļĦ": 1953,
      "çľĭåĪ°": 1954,
      "å»ºçŃĳ": 1955,
      "ç¿»è¯ĳ": 1956,
      "å°Ĭ": 1957,
      "éĩĩçĶ¨": 1958,
      "æľīä»Ģä¹Ī": 1959,
      "æ²³": 1960,
      "éĶĢåĶ®": 1961,
      "åı¯æĮģç»Ń": 1962,
      "çºª": 1963,
      "æĩ": 1964,
      "çľ¼": 1965,
      "è¶ĭåĬ¿": 1966,
      "å¿ħé¡»": 1967,
      "èª": 1968,
      "é¢ĳ": 1969,
      "æ°§": 1970,
      "ç®Ģæ´ģ": 1971,
      "æĸĩç«łä¸Ń": 1972,
      "å°Ĩåħ¶": 1973,
      "æ¢¦": 1974,
      "åĽ¢éĺŁ": 1975,
      "æĺ¨": 1976,
      "ä¸įä¼ļ": 1977,
      "éĴ±": 1978,
      "æĿ¿": 1979,
      "é©¾": 1980,
      "ç»ª": 1981,
      "ç§ģ": 1982,
      "åĪ¶å®ļ": 1983,
      "ä»¥ä¸Ĭ": 1984,
      "åĬ©äºİ": 1985,
      "åį«": 1986,
      "åĵĪ": 1987,
      "å¤įæĿĤ": 1988,
      "åĪĿ": 1989,
      "çļĦçł": 1990,
      "å¿«éĢŁ": 1991,
      "åĬ±": 1992,
      "åľ°åĮº": 1993,
      "çī¹çĤ¹": 1994,
      "èĩªçĶ±": 1995,
      "Ġ\"": 1996,
      "æķ°åŃ¦": 1997,
      "è¿Ļæ®µæĸĩæľ¬": 1998,
      "çī¹åĪ«": 1999,
      "æ¶ī": 2000,
      "ä¸Ģåıª": 2001,
      "éĥ½æľī": 2002,
      "ä»£è¡¨": 2003,
      "å±ŀäºİ": 2004,
      "çĦ¶èĢĮ": 2005,
      "æĥ³è¦ģ": 2006,
      "åĨľ": 2007,
      "çļĦæĳ": 2008,
      "æĺ¯åľ¨": 2009,
      "æĸĩåŃĹ": 2010,
      "æĳĦ": 2011,
      "èģĮä¸ļ": 2012,
      "æĥ¯": 2013,
      "çļĦæ²": 2014,
      "è´¢": 2015,
      "å¿Ĺ": 2016,
      "è¡Ģ": 2017,
      "çĽ®åīį": 2018,
      "èĹ": 2019,
      "ä¸ºæĤ¨": 2020,
      "è¯Ħä»·": 2021,
      "çĸĳ": 2022,
      "å®ŀä½ĵ": 2023,
      "æĲŃ": 2024,
      "ä¼¦": 2025,
      "ä¾Ŀ": 2026,
      "éĻįä½İ": 2027,
      "åĨ·": 2028,
      "éĴĪ": 2029,
      "å°ļ": 2030,
      "éĺ³åħī": 2031,
      "ç»ıåİĨ": 2032,
      "å²ģ": 2033,
      "å°½ç®¡": 2034,
      "åºķ": 2035,
      "åĲĪä½ľ": 2036,
      "å©": 2037,
      "æĬ¥éģĵ": 2038,
      "åħ¬åı¸çļĦ": 2039,
      "å¾Īå¥½": 2040,
      "åı¯ä»¥éĢļè¿ĩ": 2041,
      "çļĦçĶŁæ´»": 2042,
      "æ·»": 2043,
      "ä¸įè¦ģ": 2044,
      "éĤ®ä»¶": 2045,
      "æĺ¯æĮĩ": 2046,
      "ç²ī": 2047,
      "çļĦæĮ": 2048,
      "äººå·¥æĻºèĥ½åľ¨": 2049,
      "åĬłå¼º": 2050,
      "çĽĸ": 2051,
      "ç»§": 2052,
      "åįļ": 2053,
      "ç®ĢçŁŃ": 2054,
      "æķ°éĩı": 2055,
      "çī©è´¨": 2056,
      "ç¼ĸåĨĻ": 2057,
      "ä¿ĥè¿Ľ": 2058,
      "ä½łèĥ½": 2059,
      "æĥĬ": 2060,
      "çīĪ": 2061,
      "åħ±åĲĮ": 2062,
      "çļĦæĦŁ": 2063,
      "ç¾İé£Ł": 2064,
      "è®©æĪĳ": 2065,
      "å¼ºè°ĥ": 2066,
      "è¿ĻéĩĮ": 2067,
      "çļĦå»ºè®®": 2068,
      "æ±ĩ": 2069,
      "æľīåĬ©äºİ": 2070,
      "ä¸ĬæľĢ": 2071,
      "è¿Ļéĥ¨çĶµå½±": 2072,
      "å¹¸": 2073,
      "åĪļ": 2074,
      "å°Ħ": 2075,
      "çļĦæ¯": 2076,
      "æĹ¨": 2077,
      "ä¹łæĥ¯": 2078,
      "åŁºç¡": 2079,
      "è°¢è°¢": 2080,
      "åŁºç¡Ģ": 2081,
      "éĩįåĨĻ": 2082,
      "åıĮ": 2083,
      "æľīå¾Īå¤ļ": 2084,
      "ç¤¼": 2085,
      "èģĶç½ĳ": 2086,
      "æľīäºĽ": 2087,
      "èĻļ": 2088,
      "æķ´ä¸ª": 2089,
      "ä¸ĢåĲį": 2090,
      "ç§»": 2091,
      "ä½¿å¾Ĺ": 2092,
      "èĪŀ": 2093,
      "åĨ³çŃĸ": 2094,
      "éĵģ": 2095,
      "åĬĽåĴĮ": 2096,
      "åį´": 2097,
      "åĮ»åŃ¦": 2098,
      "äº¤æµģ": 2099,
      "å½¢å¼ı": 2100,
      "åį±": 2101,
      "ä¸įéĶĻ": 2102,
      "å±Ģ": 2103,
      "çļĦæķ°æį®": 2104,
      "æĬĢèĥ½": 2105,
      "å¡ĳ": 2106,
      "âĢĶ": 2107,
      "åįĪ": 2108,
      "èĮ¶": 2109,
      "è¿Ļæĺ¯ä¸Ģ": 2110,
      "æĤ£èĢħ": 2111,
      "ç¥¨": 2112,
      "å®ĩ": 2113,
      "åŁºæľ¬": 2114,
      "æľ¬æĸĩ": 2115,
      "æĬĢå·§": 2116,
      "æľºåĻ¨äºº": 2117,
      "å¯Ł": 2118,
      "å¹»": 2119,
      "çļĦæı": 2120,
      "æ¯Ĵ": 2121,
      "èģĶç³»": 2122,
      "çļĦç¤": 2123,
      "è¯´æĺİ": 2124,
      "çī¹å®ļ": 2125,
      "åı«": 2126,
      "Ġ-": 2127,
      "çŃīæĸ¹éĿ¢": 2128,
      "èķ": 2129,
      "ä»¤äºº": 2130,
      "æĭħ": 2131,
      "æİ¢è®¨": 2132,
      "åķĬ": 2133,
      "å¢ŀå¼º": 2134,
      "é¥Ń": 2135,
      "åĪĨéĴŁ": 2136,
      "æĢĿèĢĥ": 2137,
      "è¿ĩç¨ĭä¸Ń": 2138,
      "ç¹": 2139,
      "åįĥ": 2140,
      "æ¯Ľ": 2141,
      "åĸĿ": 2142,
      "çĭ¬çī¹": 2143,
      "è®©äºº": 2144,
      "æıĲåĪ°": 2145,
      "ä¸ªèĭ¹æŀľ": 2146,
      "å®£": 2147,
      "ä½įç½®": 2148,
      "èĢģå¸Ī": 2149,
      "å³°": 2150,
      "ç«ŀ": 2151,
      "è±Ĩ": 2152,
      "çº³": 2153,
      "æ¬¢è¿İ": 2154,
      "è¯ŃéŁ³": 2155,
      "æĸĩæľ¬ä¸Ń": 2156,
      "èĸ": 2157,
      "ç¬¬äºĮ": 2158,
      "éŀ": 2159,
      "æĬ½": 2160,
      "ä»ĺ": 2161,
      "å¥¥": 2162,
      "æ©Ļ": 2163,
      "åıªæľī": 2164,
      "åĿĲ": 2165,
      "éĢŁåº¦": 2166,
      "ä»¥ä¾¿": 2167,
      "è¡ĮæĺŁ": 2168,
      "ç«¯": 2169,
      "ç»Ŀ": 2170,
      "æĸĩåŃ¦": 2171,
      "éĢı": 2172,
      "è¿Ľä¸ĢæŃ¥": 2173,
      "èģļ": 2174,
      "æĦŁè§ī": 2175,
      "è·Ł": 2176,
      "è¯¾": 2177,
      "è¾ĵåĩº": 2178,
      "å®¹æĺĵ": 2179,
      "æĦŁè°¢": 2180,
      "ç¤¾äº¤åªĴä½ĵ": 2181,
      "å½¢æĪĲ": 2182,
      "æī§": 2183,
      "çģ¾": 2184,
      "æŃ£éĿ¢": 2185,
      "ä¹ħ": 2186,
      "çļĦæ°´": 2187,
      "ä½Ļ": 2188,
      "é¡º": 2189,
      "çļĦçľ": 2190,
      "æĦ¿": 2191,
      "çĦ¦": 2192,
      "é¹": 2193,
      "é©¾é©¶": 2194,
      "çĮ®": 2195,
      "ç»ĦæĪĲ": 2196,
      "ç¬ĳ": 2197,
      "è¿Ļæĺ¯ä¸Ģä¸ª": 2198,
      "å®ŀéĻħ": 2199,
      "æ¶īåıĬ": 2200,
      "çıŃ": 2201,
      "å¤§åĪ©": 2202,
      "æ·±åº¦åŃ¦ä¹ł": 2203,
      "çĥĪ": 2204,
      "åĪĽæĦı": 2205,
      "çļĦæĬĢæľ¯": 2206,
      "è¿Ļä¸Ģ": 2207,
      "åģ¥èº«": 2208,
      "èĪ¬": 2209,
      "èĪª": 2210,
      "æ¦Ĥæĭ¬": 2211,
      "åįĬ": 2212,
      "ç»ĥä¹ł": 2213,
      "åģļåĩº": 2214,
      "åŃ¦æł¡": 2215,
      "é¾Ļ": 2216,
      "çļĦä¸»é¢ĺ": 2217,
      "ä¸įåı¯": 2218,
      "æĿ¡ä»¶": 2219,
      "åıĺæļĸ": 2220,
      "äººåĳĺ": 2221,
      "åĲįåŃĹ": 2222,
      "é¼ĵ": 2223,
      "æıĲä¾ĽäºĨ": 2224,
      "èĲ¥åħ»": 2225,
      "ç»§ç»Ń": 2226,
      "çļĦæĹ¶éĹ´": 2227,
      "ç¼ĸç¨ĭ": 2228,
      "åĳĺå·¥": 2229,
      "åĲįè¯į": 2230,
      "çİĽ": 2231,
      "æĦıè¯Ĩ": 2232,
      "éĵ¾": 2233,
      "æķħ": 2234,
      "åı¯ä»¥åľ¨": 2235,
      "ç»ıå¸¸": 2236,
      "é«ĺçļĦ": 2237,
      "æĸ¹åĲĳ": 2238,
      "è´Ńçī©": 2239,
      "èĥĮæĻ¯": 2240,
      "èĩªæĪĳ": 2241,
      "åĨ¬": 2242,
      "éĢĤå½ĵ": 2243,
      "æĦıä¹ī": 2244,
      "éĵ¶": 2245,
      "æ°´å¹³": 2246,
      "å¤ļä¸ª": 2247,
      "èĮĥåĽ´": 2248,
      "ä»İæĸĩç«ł": 2249,
      "é¢Ŀ": 2250,
      "çļĦå¤©æ°Ķ": 2251,
      "æĭ¿": 2252,
      "å¤ļç§į": 2253,
      "è¯ĹæŃĮ": 2254,
      "åĽ¾åĥı": 2255,
      "åħ°": 2256,
      "ä¸¥éĩį": 2257,
      "å®ĺ": 2258,
      "åĳ¼åĲ¸": 2259,
      "çī©åĵģ": 2260,
      "ä¼´": 2261,
      "æĮīçħ§": 2262,
      "éŀĭ": 2263,
      "å¦Ĥä¸ĭ": 2264,
      "åºĶå¯¹": 2265,
      "è¿·": 2266,
      "çļĦå°ı": 2267,
      "å®ł": 2268,
      "èĲ¨": 2269,
      "å¸¸è§ģ": 2270,
      "å¤ıå¤©": 2271,
      "æ¸ħæĻ": 2272,
      "æ»¡è¶³": 2273,
      "ç¢³": 2274,
      "åĲĮæĹ¶ä¹Ł": 2275,
      "è½¯ä»¶": 2276,
      "å¹³è¡¡": 2277,
      "æ´ŀ": 2278,
      "å¯¹è¯ĿåĨħå®¹": 2279,
      "æľ«": 2280,
      "é¡¾": 2281,
      "çŁŃè¯Ń": 2282,
      "æĬ±": 2283,
      "åİ»äºĨ": 2284,
      "ä¼ļè®®": 2285,
      "ä¼°": 2286,
      "éª¤": 2287,
      "ç±»åĪ«": 2288,
      "æ£ĢæŁ¥": 2289,
      "çļĦçĪ": 2290,
      "åĢĭ": 2291,
      "åĭĩ": 2292,
      "ä¸ĭæĿ¥": 2293,
      "è¯·ä½ł": 2294,
      "15": 2295,
      "æĽ¾": 2296,
      "çĨŁ": 2297,
      "ç»ıåħ¸": 2298,
      "éĽª": 2299,
      "çºł": 2300,
      "æľ¬ä¹¦": 2301,
      "ç¹ģ": 2302,
      "èµı": 2303,
      "æĲľ": 2304,
      "å¼ķèµ·": 2305,
      "æıĲåĪ°äºĨ": 2306,
      "äºĭå®ŀ": 2307,
      "ç©ºæ°Ķ": 2308,
      "æľĹ": 2309,
      "çļĦæłĩ": 2310,
      "ä½įäºİ": 2311,
      "åŃ¤": 2312,
      "åģı": 2313,
      "åıĤä¸İ": 2314,
      "åĿı": 2315,
      "è¸": 2316,
      "æ´Ĺ": 2317,
      "è¯»èĢħ": 2318,
      "Ġåľ¨": 2319,
      "åħĥç´ł": 2320,
      "éŃĶ": 2321,
      "çļĦåħ³éĶ®": 2322,
      "æĬķèµĦ": 2323,
      "çĶµè§Ĩ": 2324,
      "æĦī": 2325,
      "å½ĵçĦ¶åı¯ä»¥": 2326,
      "ä»Ģä¹Īæĺ¯": 2327,
      "æ³³": 2328,
      "åķĨä¸ļ": 2329,
      "æĹ¥å¸¸": 2330,
      "ç¨³": 2331,
      "æĽ´å¥½çļĦ": 2332,
      "æĺ¨å¤©": 2333,
      "è°Ī": 2334,
      "åĪĨäº«": 2335,
      "ç§ĳåŃ¦å®¶": 2336,
      "éĿ¢ä¸´": 2337,
      "çľģ": 2338,
      "åĩºæĿ¥": 2339,
      "çļĦçłĶç©¶": 2340,
      "æŁĶ": 2341,
      "çķħ": 2342,
      "å§Ĩ": 2343,
      "åĢ¼å¾Ĺ": 2344,
      "çļĦæĸ¹å¼ı": 2345,
      "æ¸©åº¦": 2346,
      "çĶľ": 2347,
      "æ²ī": 2348,
      "è·Ŀ": 2349,
      "åģľ": 2350,
      "æİĴæĶ¾": 2351,
      "è´µ": 2352,
      "éĢĶ": 2353,
      "æ·»åĬł": 2354,
      "è¿ĩåİ»": 2355,
      "å®łçī©": 2356,
      "åĬĽéĩı": 2357,
      "éĢīé¡¹": 2358,
      "é¥°": 2359,
      "æľīçĿĢ": 2360,
      "æĪĳåĸľæ¬¢": 2361,
      "çĨĬ": 2362,
      "éħ±": 2363,
      "è¶ħè¿ĩ": 2364,
      "æķĪæŀľ": 2365,
      "èĤ¡": 2366,
      "è°ģ": 2367,
      "çİ°å®ŀ": 2368,
      "å²Ľ": 2369,
      "åı£æĦŁ": 2370,
      "å°Ĩä¼ļ": 2371,
      "éħ¸": 2372,
      "éĻĪ": 2373,
      "ç³»åĪĹ": 2374,
      "ï¼ģ<|": 2375,
      "åĽ½å®¶": 2376,
      "çļĦå·¥ä½ľ": 2377,
      "çļĦç¬": 2378,
      "ç¾İåĳ³": 2379,
      "ä¼½": 2380,
      "ï¼ĮâĢľ": 2381,
      "æŃ»": 2382,
      "å¹³åĿĩ": 2383,
      "å¥ĸ": 2384,
      "æĴŃ": 2385,
      "è¿ĽæŃ¥": 2386,
      "éľ²": 2387,
      "å¤«": 2388,
      "éĿł": 2389,
      "æ¬§": 2390,
      "ç³ķ": 2391,
      "æ£®": 2392,
      "å¿ĺ": 2393,
      "å¤§åŃ¦": 2394,
      "äººçī©": 2395,
      "æİĮ": 2396,
      "å®Ļ": 2397,
      "ç¥ŀç»ı": 2398,
      "çļĦæ®": 2399,
      "æľĢåĸľæ¬¢": 2400,
      "åĪĽå»º": 2401,
      "åħ¨çĲĥåıĺæļĸ": 2402,
      "éĢĤåºĶ": 2403,
      "èĨ": 2404,
      "çŃīé¢ĨåŁŁ": 2405,
      "éĴĪå¯¹": 2406,
      "æĺİå¤©": 2407,
      "ä»İè¿Ļç¯ĩæĸĩç«ł": 2408,
      "åŁ¹": 2409,
      "å¿Ĩ": 2410,
      "è´§": 2411,
      "12": 2412,
      "çļĦæĥħåĨµ": 2413,
      "äºĴèģĶç½ĳ": 2414,
      "æľīä¸Ģä¸ª": 2415,
      "ä¹īè¯į": 2416,
      "è°ĥæķ´": 2417,
      "å¥Ĺ": 2418,
      "å®ĩå®Ļ": 2419,
      "çļĦæľĢ": 2420,
      "åĨĻä½ľ": 2421,
      "ä¹³": 2422,
      "éĿ©": 2423,
      "çĽ¸åĲĮ": 2424,
      "åıĸå¾Ĺ": 2425,
      "çļĦåľ°æĸ¹": 2426,
      "åĲĪéĢĤ": 2427,
      "ľä¼½": 2428,
      "ä¿®æĶ¹": 2429,
      "è¿Ļä¸ªåı¥åŃĲ": 2430,
      "30": 2431,
      "çļĦæ´": 2432,
      "è§Ĩè§ī": 2433,
      "è®©æĪĳä»¬": 2434,
      "æ¸ħæĻ°": 2435,
      "æĪĳä»¬åºĶè¯¥": 2436,
      "çĪ±æĥħ": 2437,
      "åī©ä¸ĭ": 2438,
      "æ¥¼": 2439,
      "çº½": 2440,
      "å°ıæĹ¶": 2441,
      "æ³ķå¾ĭ": 2442,
      "éģĹ": 2443,
      "æĥħèĬĤ": 2444,
      "ä¸Ģé¦ĸ": 2445,
      "é«ĺæķĪ": 2446,
      "æ·±åħ¥": 2447,
      "æļĹ": 2448,
      "å½¢å®¹": 2449,
      "æı¡": 2450,
      "æī¿": 2451,
      "èĲ¥éĶĢ": 2452,
      "æ··": 2453,
      "åĽłä¸ºå®ĥ": 2454,
      "åĨĴ": 2455,
      "åĪĽä½ľ": 2456,
      "è·³": 2457,
      "åĽ°éļ¾": 2458,
      "æĹ¥æľ¬": 2459,
      "åĢĴ": 2460,
      "ä¸ªç³ĸæŀľ": 2461,
      "åľ°çĤ¹": 2462,
      "ç§Ģ": 2463,
      "èĹı": 2464,
      "æµ·æ´ĭ": 2465,
      "ä»ĭç»įäºĨ": 2466,
      "åºĬ": 2467,
      "æ±Ł": 2468,
      "çŃĸçķ¥": 2469,
      "çļĦæ®µ": 2470,
      "æ½ľ": 2471,
      "éļĲç§ģ": 2472,
      "è¶³å¤Ł": 2473,
      "è¯įæ±ĩ": 2474,
      "çĽ¸ä¼¼": 2475,
      "æĹ¶å°ļ": 2476,
      "æ±ī": 2477,
      "æĹ¥æľŁ": 2478,
      "ç£": 2479,
      "å·§åħĭ": 2480,
      "éģĵå¾·": 2481,
      "å¡ĳæĸĻ": 2482,
      "èĭ±è¯Ń": 2483,
      "çļĦå¤§": 2484,
      "çļĦè¯Ŀ": 2485,
      "çļĦçĥ": 2486,
      "ç½ĳç«Ļ": 2487,
      "æ±¤": 2488,
      "æ£Ĵ": 2489,
      "å·¦": 2490,
      "ä¼ĺåĮĸ": 2491,
      "100": 2492,
      "çļĦæ°Ķ": 2493,
      "çļĦæ®µèĲ½": 2494,
      "å¿«ä¹Ĳ": 2495,
      "çļĦç¤¾": 2496,
      "ç»ĨèĬĤ": 2497,
      "æĵį": 2498,
      "ä¾ĭåŃĲ": 2499,
      "å¹¶åľ¨": 2500,
      "éĨĴ": 2501,
      "æ¸¸æ³³": 2502,
      "å®Ī": 2503,
      "ç»¿èī²": 2504,
      "çĦ¦èĻĳ": 2505,
      "æļ´": 2506,
      "èį¯çī©": 2507,
      "å®ĥä»¬çļĦ": 2508,
      "åĪĨç±»ä¸º": 2509,
      "éļľ": 2510,
      "çĻ»": 2511,
      "è´£ä»»": 2512,
      "è¢ĭ": 2513,
      "æľĿ": 2514,
      "æĺ¯çļĦ": 2515,
      "æıĲåĩº": 2516,
      "åŃ£èĬĤ": 2517,
      "æł¹æį®ä»¥ä¸ĭ": 2518,
      "ä¿Ŀåģ¥": 2519,
      "æĹłè®º": 2520,
      "æ¶Īè´¹": 2521,
      "é¡¿": 2522,
      "ä»įçĦ¶": 2523,
      "çļĦæĹ¶åĢĻ": 2524,
      "ä¸Ģç¯ĩæĸĩç«ł": 2525,
      "æĬ¥åĳĬ": 2526,
      "æĶ¿çŃĸ": 2527,
      "å¹¿åĳĬ": 2528,
      "çļĦå¥½": 2529,
      "çģ¯": 2530,
      "ä»¥ä¸ĭæĺ¯ä¸Ģ": 2531,
      "å¹³åı°": 2532,
      "åĲĪçĲĨ": 2533,
      "åı³": 2534,
      "çļĦéĩįè¦ģæĢ§": 2535,
      "ç»ŃåĨĻ": 2536,
      "çļĦé£Łçī©": 2537,
      "å¤ļæł·": 2538,
      "æ¨¡å¼ı": 2539,
      "å°ģ": 2540,
      "äººå·¥æĻºèĥ½çļĦ": 2541,
      "å·§åħĭåĬĽ": 2542,
      "ç¥ŀç§ĺ": 2543,
      "åĹ": 2544,
      "ŁéĢļ": 2545,
      "è¡Ĺ": 2546,
      "å¢ŀéķ¿": 2547,
      "åľ¨å®¶": 2548,
      "..": 2549,
      "çĬ¯": 2550,
      "ç®±": 2551,
      "æµĵ": 2552,
      "åıįåºĶ": 2553,
      "ä¸įè¿ĩ": 2554,
      "çĹĽ": 2555,
      "ä¸Ģæł·": 2556,
      "åľĨ": 2557,
      "å°ıæĺİæľī": 2558,
      "èĢĲ": 2559,
      "å¹¸ç¦ı": 2560,
      "æĮ¥": 2561,
      "æĬĺ": 2562,
      "å¸¦æĿ¥äºĨ": 2563,
      "æĭ¼": 2564,
      "åĺ": 2565,
      "åĮĸçļĦ": 2566,
      "ç¬¦åĲĪ": 2567,
      "èĦĤ": 2568,
      "æĶ¹è¿Ľ": 2569,
      "çĳľä¼½": 2570,
      "å¡Ķ": 2571,
      "æĲľç´¢": 2572,
      "çĬ¶æĢģ": 2573,
      "åĨ²": 2574,
      "åı£åĳ³": 2575,
      "åĪ¶éĢł": 2576,
      "çļĦæµ·": 2577,
      "çĶµèĦĳ": 2578,
      "å¿ħè¦ģ": 2579,
      "ç¼ĵè§£": 2580,
      "50": 2581,
      "ä¹İ": 2582,
      "æķĳ": 2583,
      "æĦŁåıĹ": 2584,
      "æĬĹ": 2585,
      "çº½çº¦": 2586,
      "çī©çĲĨ": 2587,
      "Ġ=": 2588,
      "è£¤": 2589,
      "çº¸": 2590,
      "æĺİç¡®": 2591,
      "äººåĲį": 2592,
      "è¯įè¯Ń": 2593,
      "çļĦæĳĺè¦ģ": 2594,
      "åħ¶æ¬¡": 2595,
      "ä¸Ĭåįĩ": 2596,
      "èĦļ": 2597,
      "é¼ĵåĬ±": 2598,
      "æŃ£ç¡®çļĦ": 2599,
      "ç«ŀäºī": 2600,
      "ç«¥": 2601,
      "åį³åı¯": 2602,
      "æĢ»æĺ¯": 2603,
      "éĹ²": 2604,
      "çļĦä¸»": 2605,
      "åľ°æĸ¹": 2606,
      "åĬ¨ä½ľ": 2607,
      "æĥħç»ª": 2608,
      "æł¸": 2609,
      "å·¥ç¨ĭ": 2610,
      "åĪĨç»Ļ": 2611,
      "ç±į": 2612,
      "æıĲä¾Ľä¸Ģä¸ª": 2613,
      "æ½®": 2614,
      "éĢĲæ¸Ĳ": 2615,
      "çİ°è±¡": 2616,
      "åıĹæ¬¢è¿İ": 2617,
      "åĽ½éĻħ": 2618,
      "è¿½æ±Ĥ": 2619,
      "éĻĲåĪ¶": 2620,
      "é»İ": 2621,
      "å®¶å±ħ": 2622,
      "æŁĲäºĽ": 2623,
      "ä¹ĭåīį": 2624,
      "åĩıè½»": 2625,
      "è¾Ĩ": 2626,
      "æ¬£": 2627,
      "è´¡": 2628,
      "æ°¸": 2629,
      "ä¸ĸçºª": 2630,
      "çħ®": 2631,
      "æµĭè¯ķ": 2632,
      "çĽĲ": 2633,
      "åĳ³éģĵ": 2634,
      "è·Ŀç¦»": 2635,
      "æĻ¯çĤ¹": 2636,
      "æıĲåįĩ": 2637,
      "ä¸Ģåı¥è¯Ŀ": 2638,
      "èĿ": 2639,
      "18": 2640,
      "å¤ªç©º": 2641,
      "èĤ¤": 2642,
      "åºĶçĶ¨äºİ": 2643,
      "ä¸Ŀ": 2644,
      "çĶŁæĢģç³»ç»Ł": 2645,
      "æĲŃéħį": 2646,
      "è°·": 2647,
      "ä¸ĸçķĮä¸ĬæľĢ": 2648,
      "±ä¹Ĳ": 2649,
      "çĤº": 2650,
      "åħ¬åħ±": 2651,
      "æİ¨åĬ¨": 2652,
      "ä¸ĭæĸĩ": 2653,
      "è®©ä½ł": 2654,
      "ä»¿": 2655,
      "éĶħ": 2656,
      "å®ŀéªĮ": 2657,
      "åº¦åĴĮ": 2658,
      "éĸ": 2659,
      "åĵªä¸ª": 2660,
      "ç»¼": 2661,
      "ç¥Ŀ": 2662,
      "æĻļä¸Ĭ": 2663,
      "ä¸Ģå®¶": 2664,
      "ä¸ªæĢ§": 2665,
      "ä½¿åħ¶æĽ´åĬł": 2666,
      "çº¢èī²": 2667,
      "ç©ºéĹ´": 2668,
      "å¼łä¸ī": 2669,
      "çĶ¨æĿ¥": 2670,
      "è§£åĨ³æĸ¹æ¡Ī": 2671,
      "åĢĳ": 2672,
      "æ±ł": 2673,
      "æ©ĻåŃĲ": 2674,
      "å¤ıåŃ£": 2675,
      "æĪĲéķ¿": 2676,
      "çļĦåĨħå®¹": 2677,
      "å¸ģ": 2678,
      "æĦıæĢĿ": 2679,
      "æĿĳ": 2680,
      "è´¡çĮ®": 2681,
      "æĺ¯çĶ±": 2682,
      "éĵħ": 2683,
      "æ¹ĸ": 2684,
      "çļĦæ³": 2685,
      "çĽĺ": 2686,
      "å±ķç¤º": 2687,
      "çīĽå¥¶": 2688,
      "ä¹ĺ": 2689,
      "è¯Ħä¼°": 2690,
      "èµŀ": 2691,
      "åĲ«ä¹ī": 2692,
      "ä¸¤ä¸ªåı¥åŃĲ": 2693,
      "æ°Ķä½ĵ": 2694,
      "å¿Ļ": 2695,
      "è²": 2696,
      "æľºæŀĦ": 2697,
      "æŃ§": 2698,
      "æĹ©ä¸Ĭ": 2699,
      "__": 2700,
      "æľªæĿ¥çļĦ": 2701,
      "åİŁå§ĭ": 2702,
      "åĬ³": 2703,
      "å¥³æĢ§": 2704,
      "çĬ¶åĨµ": 2705,
      "å®«": 2706,
      "å®Įåħ¨": 2707,
      "æ±ģ": 2708,
      "åĴĮåħ¶ä»ĸ": 2709,
      "çļĦåİĨåı²": 2710,
      "æī©": 2711,
      "ãĢĤâĢĿ<|": 2712,
      "ä¸ĢèĪ¬": 2713,
      "åİļ": 2714,
      "ç»Ļåĩºä¸Ģä¸ª": 2715,
      "è°ĥæŁ¥": 2716,
      "åľ¨çº¿": 2717,
      "èİ·åıĸ": 2718,
      "æķ£æŃ¥": 2719,
      "å¥ĭ": 2720,
      "å°Ĭéĩį": 2721,
      "æĿ¥èĩª": 2722,
      "çĶŁæ´»ä¸Ń": 2723,
      "æĪ·å¤ĸ": 2724,
      "åĤ¨": 2725,
      "è®°å½ķ": 2726,
      "è¿Ļå®¶": 2727,
      "ç¯®": 2728,
      "çĽ¸ä¿¡": 2729,
      "åĮ»çĸĹä¿Ŀåģ¥": 2730,
      "åĲ¯": 2731,
      "ä¸ľè¥¿": 2732,
      "æ»ĳ": 2733,
      "çĽ´æİ¥": 2734,
      "æĪĲæľ¬": 2735,
      "ä¹Łä¼ļ": 2736,
      "åĪĹè¡¨": 2737,
      "åı¯èĥ½æĺ¯": 2738,
      "æĬĢæľ¯çļĦ": 2739,
      "æĦıåĳ³": 2740,
      "æĺł": 2741,
      "å°į": 2742,
      "åħŃ": 2743,
      "è¾¾åĪ°": 2744,
      "çļĦæĢĿ": 2745,
      "åĽŀçŃĶéĹ®é¢ĺ": 2746,
      "ç½ª": 2747,
      "å¥¹çļĦ": 2748,
      "ä¸įçŁ¥éģĵ": 2749,
      "çłĶ": 2750,
      "è®ºæĸĩ": 2751,
      "å¾Ħ": 2752,
      "åºĶçĶ¨ç¨ĭåºı": 2753,
      "æĦıå¤§åĪ©": 2754,
      "ä¸Ĭæµ·": 2755,
      "æĪĳè®¤ä¸º": 2756,
      "å¦Ī": 2757,
      "éĵħç¬Ķ": 2758,
      "åĨł": 2759,
      "éĤ£éĩĮ": 2760,
      "æĸ¹ä¾¿": 2761,
      "çİī": 2762,
      "åĪĨåĪ«": 2763,
      "æĪĳå¾Ī": 2764,
      "è¡¨è¾¾äºĨ": 2765,
      "ç¼©": 2766,
      "éĢĻ": 2767,
      "çĥ§": 2768,
      "åŃ¦ä¹łåĴĮ": 2769,
      "ç»Ļä½ł": 2770,
      "æĿ°": 2771,
      "æŃ¥éª¤": 2772,
      "æįŁ": 2773,
      "èĳĹåĲįçļĦ": 2774,
      "å·´é»İ": 2775,
      "æ·±åĪ»": 2776,
      "æĢ¥": 2777,
      "éģį": 2778,
      "ç¨³å®ļ": 2779,
      "æ´¾": 2780,
      "éº¦": 2781,
      "èĽĭçĻ½": 2782,
      "è¶³çĲĥ": 2783,
      "åĽº": 2784,
      "èĩ³å°ĳ": 2785,
      "éĩıåŃĲ": 2786,
      "ä¸Ģå¤©": 2787,
      "åĩī": 2788,
      "æĶ¹åĨĻ": 2789,
      "æŀ¶": 2790,
      "åı¯ä»¥ä½¿çĶ¨": 2791,
      "è¿Ļç¯ĩ": 2792,
      "æĸĹ": 2793,
      "çĩĥ": 2794,
      "æĸ°éĹ»æĬ¥éģĵ": 2795,
      "æĦıåĳ³çĿĢ": 2796,
      "æĽ¿æį¢": 2797,
      "åĳĪ": 2798,
      "çİ¯å¢ĥä¿ĿæĬ¤": 2799,
      "é¥¼": 2800,
      "åĪº": 2801,
      "å®½": 2802,
      "çĤĴ": 2803,
      "åıĳå¸ĥ": 2804,
      "åĮĸåŃ¦": 2805,
      "éĻĦ": 2806,
      "æŃī": 2807,
      "è¡¨éĿ¢": 2808,
      "ä½Ľ": 2809,
      "åĿļæĮģ": 2810,
      "å½ĵåīį": 2811,
      "åı¥åŃĲä¸Ń": 2812,
      "å¤©ç©º": 2813,
      "ç±»ä¼¼": 2814,
      "äººçĶŁ": 2815,
      "çļĦäºĭæĥħ": 2816,
      "éľĩ": 2817,
      "åģ¥åº·çļĦ": 2818,
      "æ°Ķæ¸©": 2819,
      "ä¸Ģç»Ħ": 2820,
      "çļĦä¸Ģä¸ª": 2821,
      "æģ¶": 2822,
      "æĿŁ": 2823,
      "å¹¶ä¸į": 2824,
      "èĩªè¡Į": 2825,
      "æĶ»": 2826,
      "ä»¥ç¡®ä¿Ŀ": 2827,
      "åºŁ": 2828,
      "åĶ±": 2829,
      "éĽħ": 2830,
      "ç»©": 2831,
      "on": 2832,
      "å¯Ĵ": 2833,
      "æĤ¦": 2834,
      "ä¿Ŀè¯ģ": 2835,
      "çŃ¾": 2836,
      "çļĦæ´»": 2837,
      "è®¢": 2838,
      "æ¯ıä¸ªæľĭåıĭ": 2839,
      "åĪĨåĪ°": 2840,
      "å°¤": 2841,
      "çĽ¸åħ³çļĦ": 2842,
      "å¹ħ": 2843,
      "æİ¨å¹¿": 2844,
      "çļĦç³": 2845,
      "æ¶¦": 2846,
      "è¡£æľį": 2847,
      "åºĵ": 2848,
      "çīĻ": 2849,
      "ç»ĺ": 2850,
      "éľĢè¦ģæ³¨æĦı": 2851,
      "¡èĲ": 2852,
      "çľŁæŃ£": 2853,
      "åĬ¨è¯į": 2854,
      "æī§è¡Į": 2855,
      "ä¼ĺåĬ¿": 2856,
      "æİī": 2857,
      "æģĲ": 2858,
      "æĢĿæĥ³": 2859,
      "åı¯ä»¥è¢«": 2860,
      "èĥ½éĩı": 2861,
      "èĤĮ": 2862,
      "èĭ¦": 2863,
      "çĽĽ": 2864,
      "æİ¥åıĹ": 2865,
      "ç§ĳå¹»": 2866,
      "å®ļä¹ī": 2867,
      "æ¤Ĵ": 2868,
      "çļĦæĸ°": 2869,
      "æ¨¡æĭŁ": 2870,
      "çıį": 2871,
      "ä¸Ģä¸ªäºº": 2872,
      "åı¯æĮģç»Ńåıĳå±ķ": 2873,
      "å¾ª": 2874,
      "éªĳ": 2875,
      "å®īæİĴ": 2876,
      "èĢĮä¸įæĺ¯": 2877,
      "å¼ĥ": 2878,
      "ç»ĵåĲĪ": 2879,
      "çļĦæĻº": 2880,
      "çļĦçĭ": 2881,
      "æ£®æŀĹ": 2882,
      "æĺİäºĨ": 2883,
      "åıĳæĮ¥": 2884,
      "åĴĮæĸĩåĮĸ": 2885,
      "è½»æĿ¾": 2886,
      "çļĦçĪ±": 2887,
      "ä½łéľĢè¦ģ": 2888,
      "ä¸»ä¹ī": 2889,
      "ä¸ĭåĪĹ": 2890,
      "ä½łå¥½": 2891,
      "åĩºèī²": 2892,
      "çļĦæıı": 2893,
      "è¯·åĳĬè¯īæĪĳ": 2894,
      "çĽ¸äºĴ": 2895,
      "çļĦæĦıæĢĿ": 2896,
      "ä¸ŃæľĢ": 2897,
      "çĿ¡çľł": 2898,
      "å®¶äºº": 2899,
      "æıĲä¾Ľä¸ĢäºĽ": 2900,
      "èĤ¥": 2901,
      "åħ±æľī": 2902,
      "ä¼ĺç§Ģ": 2903,
      "äºĨä¸ĢäºĽ": 2904,
      "å®ļæľŁ": 2905,
      "èĭı": 2906,
      "å©ļ": 2907,
      "åĪĹåĩº": 2908,
      "äººç±»çļĦ": 2909,
      "è©": 2910,
      "åľ¨ä¸Ģèµ·": 2911,
      "è·µ": 2912,
      "ç»Ļå®ļä¸Ģä¸ª": 2913,
      "å¨±ä¹Ĳ": 2914,
      "å°¾": 2915,
      "æĵįä½ľ": 2916,
      "çļĦçģ": 2917,
      "è§Ĥä¼Ĺ": 2918,
      "æ³¨éĩį": 2919,
      "çĥŁ": 2920,
      "é«ĺåħ´": 2921,
      "æµģè¡Į": 2922,
      "çĽ®çļĦåľ°": 2923,
      "æĺ¯ä¸Ģéĥ¨": 2924,
      "çµ": 2925,
      "å¤§å®¶": 2926,
      "çĶŁåŃĺ": 2927,
      "ä¹Łæľī": 2928,
      "èĽĭç³ķ": 2929,
      "æīĢæľīçļĦ": 2930,
      "ç¿°": 2931,
      "çĽ¸å¯¹": 2932,
      "æ¹¿": 2933,
      "æĪĳåľ¨": 2934,
      "èī¯å¥½çļĦ": 2935,
      "çļĦæ¦Ĥ": 2936,
      "åĨĻä¸Ģç¯ĩ": 2937,
      "éĿ¢å¯¹": 2938,
      "ä¹¦ç±į": 2939,
      "é¥®æĸĻ": 2940,
      "èĥģ": 2941,
      "éĢ»": 2942,
      "æĹ¶ä»£": 2943,
      "æĢ»ä¹ĭ": 2944,
      "åĿ¦": 2945,
      "å®ľ": 2946,
      "ç»ĵè®º": 2947,
      "åĮ»çĸĹé¢ĨåŁŁ": 2948,
      "è·ĳæŃ¥": 2949,
      "è®¿": 2950,
      "èĪ¹": 2951,
      "é¾Ħ": 2952,
      "ç¨ĭåº¦": 2953,
      "ä¾Ĩ": 2954,
      "åı¤è¯Ĺ": 2955,
      "éĢĤéĩı": 2956,
      "æľµ": 2957,
      "çľŁçļĦ": 2958,
      "åıªæĺ¯": 2959,
      "è¯ļ": 2960,
      "åŃ¤çĭ¬": 2961,
      "é¢Ħéĺ²": 2962,
      "çļĦæĢ»": 2963,
      "åħ¶ä¸ŃçļĦ": 2964,
      "æİ¨çĲĨ": 2965,
      "æİĮæı¡": 2966,
      "æĬ½åıĸ": 2967,
      "éĤ£äºĽ": 2968,
      "çĶļ": 2969,
      "åĵº": 2970,
      "è¿Ľåħ¥": 2971,
      "å¨ģèĥģ": 2972,
      "æ³¡": 2973,
      "å¥ı": 2974,
      "å¯»æ±Ĥ": 2975,
      "ä¸ļåĬ¡": 2976,
      "è°±": 2977,
      "åĵ¥": 2978,
      "åīįå¾Ģ": 2979,
      "æľīåĵªäºĽ": 2980,
      "æ¼Ķåĳĺ": 2981,
      "æµģçķħ": 2982,
      "è¿Ľè¡ĮåĪĨç±»": 2983,
      "202": 2984,
      "æĮĩåĩº": 2985,
      "è§ĦåĪĴ": 2986,
      "å®ŀè·µ": 2987,
      "çĭ¬çī¹çļĦ": 2988,
      "åĳ¨åĽ´": 2989,
      "æĪĲè¯Ń": 2990,
      "å¹´çļĦ": 2991,
      "æĸĩæľ¬åĨħå®¹": 2992,
      "è¾£": 2993,
      "ç»ıè¿ĩ": 2994,
      "æ¸©æļĸ": 2995,
      "ä½ĵèĤ²": 2996,
      "çıł": 2997,
      "éĩįçĤ¹": 2998,
      "æŃ§è§Ĩ": 2999,
      "çİĽä¸½": 3000,
      "å£°éŁ³": 3001,
      "æ¦Ĥå¿µ": 3002,
      "æ°§åĮĸ": 3003,
      "ä»ĸåľ¨": 3004,
      "éĽ¶": 3005,
      "ä¸Ńæĸĩ": 3006,
      "åŃ¸": 3007,
      "å¼ĢæĶ¾": 3008,
      "åįģåĪĨ": 3009,
      "å¾Ĺåĩº": 3010,
      "éĢ»è¾ĳ": 3011,
      "ç²¾ç¥ŀ": 3012,
      "èķī": 3013,
      "æĹ¨åľ¨": 3014,
      "æ¶²": 3015,
      "åĵªéĩĮ": 3016,
      "çļĦçŁŃ": 3017,
      "çº¦ç¿°": 3018,
      "æ³°": 3019,
      "çī©ä½ĵ": 3020,
      "çĹħæ¯Ĵ": 3021,
      "é¸¡èĽĭ": 3022,
      "è¿ŀæİ¥": 3023,
      "å¦Ļ": 3024,
      "å¤ªéĺ³ç³»": 3025,
      "èĩªåĬ¨åĮĸ": 3026,
      "è§ĦåĪĻ": 3027,
      "ä½¿åħ¶æĽ´": 3028,
      "æľĢä½³": 3029,
      "èĻļæĭŁ": 3030,
      "éĥ½ä¼ļ": 3031,
      "çļĦæĥ³": 3032,
      "éķ¿åº¦": 3033,
      "æĢĢ": 3034,
      "ä¸Ģæ¬¾": 3035,
      "èĩªåĬ¨é©¾é©¶": 3036,
      "çļĦæĻ¯": 3037,
      "æıĲåıĸåĩº": 3038,
      "è´Ŀ": 3039,
      "èº«ä½ĵåģ¥åº·": 3040,
      "è½®": 3041,
      "ä¸ĬéĿ¢": 3042,
      "çĲĨè®º": 3043,
      "æķ¬": 3044,
      "èľľ": 3045,
      "åĩĢ": 3046,
      "éģµ": 3047,
      "åĢ¾": 3048,
      "èĵĿèī²": 3049,
      "å´": 3050,
      "é¦Ļèķī": 3051,
      "åľ¨ä¸Ģä¸ª": 3052,
      "çļĦé£İéĻ©": 3053,
      "ä¹¡": 3054,
      "äº¡": 3055,
      "200": 3056,
      "æµ·æ»©": 3057,
      "æĸ°é²ľ": 3058,
      "åħ³éĶ®ä¿¡æģ¯": 3059,
      "æĪĳéľĢè¦ģ": 3060,
      "åĲĦä¸ª": 3061,
      "æĪĲä¸ºäºĨ": 3062,
      "èĭ±åĽ½": 3063,
      "æľīæīĢ": 3064,
      "è¡¥": 3065,
      "ç¾İå¥½çļĦ": 3066,
      "èĦ±": 3067,
      "æ··åĲĪ": 3068,
      "åĵºä¹³": 3069,
      "ä¼ĺçĤ¹": 3070,
      "çĤİ": 3071,
      "åĪĨä¸º": 3072,
      "ï¼īï¼Į": 3073,
      "æĺ¾ç¤º": 3074,
      "è¿Ļæ¬¾": 3075,
      "å¥³åŃ©": 3076,
      "èĤ¯": 3077,
      "åĨĻä¸Ģä¸ª": 3078,
      "å°Ĩä»¥ä¸ĭ": 3079,
      "æĬ±æŃī": 3080,
      "çĶ³": 3081,
      "å·¥ä¸ļ": 3082,
      "ä¸»äºº": 3083,
      "ç§¯æŀģçļĦ": 3084,
      "è´¥": 3085,
      "çŁŃæĸĩ": 3086,
      "éĹŃ": 3087,
      "éº¼": 3088,
      "æĺ¯ä¸ŃåĽ½": 3089,
      "åį·": 3090,
      "èªī": 3091,
      "é«ĺåº¦": 3092,
      "çļĦæ´»åĬ¨": 3093,
      "å°ıåŃ¦": 3094,
      "çĬ¬": 3095,
      "æ²ŁéĢļ": 3096,
      "æĸĩåĮĸåĴĮ": 3097,
      "æĩĤ": 3098,
      "ãĢĭãĢģ": 3099,
      "ç¾İä¸½çļĦ": 3100,
      "æ¡Į": 3101,
      "è¿¹": 3102,
      "è¯·ç»ĻæĪĳ": 3103,
      "èĩªè¡Įè½¦": 3104,
      "æĺ¯ä¸Ģä½į": 3105,
      "åħ«": 3106,
      "æł¹æį®æıĲä¾Ľ": 3107,
      "åľ£": 3108,
      "æ¾": 3109,
      "XX": 3110,
      "éĿ¢åĮħ": 3111,
      "å«": 3112,
      "ç®Ģè¦ģ": 3113,
      "ĠâĢľ": 3114,
      "è¯ŃéŁ³è¯ĨåĪ«": 3115,
      "éĥģ": 3116,
      "çļĦæııè¿°": 3117,
      "éķĩ": 3118,
      "ç¥ŀç»ıç½ĳç»ľ": 3119,
      "çļĦæīĭ": 3120,
      "æĭį": 3121,
      "éĻĪè¿°": 3122,
      "ï¼īãĢĤ": 3123,
      "ä¹ĭåĲİ": 3124,
      "æłĩåĩĨ": 3125,
      "å¹³çŃī": 3126,
      "æĹ¶æľŁ": 3127,
      "çļĦçŃĶæ¡Ī": 3128,
      "èİĵ": 3129,
      "ä¹ı": 3130,
      "è§¦": 3131,
      "åįļçī©": 3132,
      "èĭĹ": 3133,
      "åģ¥åº·é¥®é£Ł": 3134,
      "å»¶": 3135,
      "éŃĶæ³ķ": 3136,
      "åºĨ": 3137,
      "ĠĠ": 3138,
      "æĹ¶éĹ´åĴĮ": 3139,
      "ç¤¾åĮº": 3140,
      "çļĦæĭ": 3141,
      "æŁĲä¸ª": 3142,
      "ç¬¬ä¸Ģ": 3143,
      "å±ķçİ°": 3144,
      "åĳ¨æľ«": 3145,
      "æķ°æį®éĽĨ": 3146,
      "ä»£çłģ": 3147,
      "è½¬æį¢": 3148,
      "è¯¾ç¨ĭ": 3149,
      "èĢ³": 3150,
      "æī¾åĩº": 3151,
      "å·¦åı³": 3152,
      "éª¨": 3153,
      "é¢Ĩå¯¼": 3154,
      "å¾ĹåĪ°äºĨ": 3155,
      "åīĤ": 3156,
      "ç§°ä¸º": 3157,
      "è³": 3158,
      "åı¤ä»£": 3159,
      "ç®ĢåįķçļĦ": 3160,
      "åĬĽçļĦ": 3161,
      "çļĦæĢ§": 3162,
      "æľŁéĹ´": 3163,
      "å®Ĺ": 3164,
      "æ¬£èµı": 3165,
      "çļĦæİ¨": 3166,
      "åĨįçĶŁ": 3167,
      "æĸĩæľ¬ä¸ŃçļĦ": 3168,
      "åĨ¥": 3169,
      "åĪĨéħį": 3170,
      "ä¼ĳæģ¯": 3171,
      "æĶ¾åľ¨": 3172,
      "æĦŁåıĹåĪ°": 3173,
      "è¯Ńè¨Ģæ¨¡åŀĭ": 3174,
      "çļĦæķĪ": 3175,
      "çĴ": 3176,
      "çļĦæĮĳæĪĺ": 3177,
      "è®²è¿°äºĨ": 3178,
      "æĹ§": 3179,
      "äº¿": 3180,
      "æ¸ħæ´ģ": 3181,
      "åĮºåĿĹ": 3182,
      "æħ§": 3183,
      "åĵģè´¨": 3184,
      "å£®": 3185,
      "çĪ±å¥½": 3186,
      "çĶļèĩ³": 3187,
      "ä»Ģéº¼": 3188,
      "çģ¾å®³": 3189,
      "å®ĥåı¯ä»¥": 3190,
      "å®ģ": 3191,
      "è½½": 3192,
      "æĺŁæľŁ": 3193,
      "èĽĭçĻ½è´¨": 3194,
      "åĨĴéĻ©": 3195,
      "èĥ½åĲ¦": 3196,
      "ä¸ĥ": 3197,
      "ä¸ºæĪĳ": 3198,
      "ªæĺİ": 3199,
      "åłĤ": 3200,
      "ĠæĪĳ": 3201,
      "å¯¿": 3202,
      "è¡¨æ¼Ķ": 3203,
      "å½Ĵç±»": 3204,
      "åıĬæĹ¶": 3205,
      "æĪ¿éĹ´": 3206,
      "åĮĢ": 3207,
      "å¤§æ°Ķ": 3208,
      "è¿Ļæľ¬ä¹¦": 3209,
      "çĻĮ": 3210,
      "çĭ¬ç«ĭ": 3211,
      "æĹĭ": 3212,
      "ãĢĭãĢģãĢĬ": 3213,
      "çļĦåİŁåĽł": 3214,
      "å°¤åħ¶": 3215,
      "é¼ł": 3216,
      "âĢĶâĢĶ": 3217,
      "çĶŁæ´»æĸ¹å¼ı": 3218,
      "ç§įæĹı": 3219,
      "æĢĿç»´": 3220,
      "æĿĢ": 3221,
      "æĥħåĨµä¸ĭ": 3222,
      "çľĭçĶµå½±": 3223,
      "èĤª": 3224,
      "èĦĤèĤª": 3225,
      "èĮĦ": 3226,
      "é»ĺ": 3227,
      "åħ·ä½ĵçļĦ": 3228,
      "å¼ºè°ĥäºĨ": 3229,
      "çĽ¸åºĶ": 3230,
      "æ®Ĭ": 3231,
      "«èĲ¨": 3232,
      "é¢Ĺç³ĸæŀľ": 3233,
      "åĵºä¹³åĬ¨çī©": 3234,
      "éĻ¤äºĨ": 3235,
      "æľĢå¥½çļĦ": 3236,
      "å®ĥæĺ¯": 3237,
      "å®¾": 3238,
      "å¹¶æıĲä¾Ľ": 3239,
      "æķı": 3240,
      "å½¢å®¹è¯į": 3241,
      "è¿ª": 3242,
      "è®¤è¯Ĩ": 3243,
      "è¯º": 3244,
      "é»ĳæ´ŀ": 3245,
      "å®¤æ°Ķä½ĵ": 3246,
      "çĶŁæĪĲåķĨåĵģ": 3247,
      "æ¦": 3248,
      "åľ¨æľªæĿ¥": 3249,
      "äºĭçī©": 3250,
      "æĭĮ": 3251,
      "çļĦèĥ½åĬĽ": 3252,
      "èĳ±": 3253,
      "èļ": 3254,
      "ç§įç±»": 3255,
      "æĺĵäºİ": 3256,
      "åĢŁ": 3257,
      "å¼ºçĥĪ": 3258,
      "ä¼ĳéĹ²": 3259,
      "äºĴåĬ¨": 3260,
      "æ¶Īè´¹èĢħ": 3261,
      "å½¼": 3262,
      "æ»¡æĦı": 3263,
      "äºĨä¸Ģç§į": 3264,
      "æľĢæĸ°": 3265,
      "å¼¹": 3266,
      "çļĦç©": 3267,
      "èĦı": 3268,
      "éĢĢ": 3269,
      "æİ¢è®¨äºĨ": 3270,
      "ä¹Ŀ": 3271,
      "è°ĵ": 3272,
      "çļĦä¸»è¦ģè§ĤçĤ¹": 3273,
      "è¹": 3274,
      "æľīè¶£çļĦ": 3275,
      "æ¼Ĥ": 3276,
      "äº¤æĺĵ": 3277,
      "æľĢå¥½": 3278,
      "æĹ¢": 3279,
      "å¸Ŀ": 3280,
      "åįļçī©é¦Ĩ": 3281,
      "æ¶Īæŀģ": 3282,
      "æľĥ": 3283,
      "åĴ¨": 3284,
      "å·Ŀ": 3285,
      "è¿ĺéľĢè¦ģ": 3286,
      "æ¯ıä¸ªäººéĥ½": 3287,
      "èĢĹ": 3288,
      "å¹´é¾Ħ": 3289,
      "ç¶": 3290,
      "å®Įæķ´": 3291,
      "çĸ«æĥħ": 3292,
      "æİ¥ä¸ĭæĿ¥": 3293,
      "éĢĴ": 3294,
      "Ġæııè¿°": 3295,
      "è´ŁéĿ¢å½±åĵį": 3296,
      "å¤ļçļĦ": 3297,
      "çļĦç³ĸ": 3298,
      "è¾ħ": 3299,
      "è¿ħ": 3300,
      "å®£ä¼ł": 3301,
      "çĶŁéķ¿": 3302,
      "è§Ĩé¢ĳ": 3303,
      "è®¨è®ºäºĨ": 3304,
      "é¡¶": 3305,
      "çĪ¶": 3306,
      "æĪĳæĹłæ³ķ": 3307,
      "èº«å¿ĥ": 3308,
      "çªĹ": 3309,
      "ä¹Łå¾Ī": 3310,
      "çļĦç¬¬": 3311,
      "æĢ§èĥ½": 3312,
      "æ³ķåĽ½": 3313,
      "çľĭèµ·æĿ¥": 3314,
      "åħħåĪĨ": 3315,
      "çĵľ": 3316,
      "èģĬå¤©": 3317,
      "è¯Ńæ³ķéĶĻè¯¯": 3318,
      "åĴ¨è¯¢": 3319,
      "ç»ķ": 3320,
      "æķ¢": 3321,
      "è§Ī": 3322,
      "ç¿»è¯ĳæĪĲ": 3323,
      "æĺŁçĲĥ": 3324,
      "äºĨè®¸å¤ļ": 3325,
      "çļĦéŁ³ä¹Ĳ": 3326,
      "éķ¿æľŁ": 3327,
      "ä½łä»¬": 3328,
      "çļĦçİ¯å¢ĥ": 3329,
      "ä¸Ĭä¸ĭæĸĩ": 3330,
      "åĲ¬èµ·æĿ¥": 3331,
      "ä¸Ģæľ¬": 3332,
      "èģªæĺİ": 3333,
      "æĢ»ç»Ł": 3334,
      "æĥł": 3335,
      "çĶŁæĹ¥": 3336,
      "éĺ¶": 3337,
      "å¿ĥæĥħ": 3338,
      "çļĦçĹ": 3339,
      "åĵ²": 3340,
      "è§Ĥå¯Ł": 3341,
      "çļĦç²": 3342,
      "èī²å½©": 3343,
      "çķª": 3344,
      "éº»": 3345,
      "åıĺå¾ĹæĽ´åĬł": 3346,
      "é½": 3347,
      "çļĦæīĢ": 3348,
      "èį£": 3349,
      "ï¼ŁâĢĿ": 3350,
      "å¹´æĿ¥": 3351,
      "ä¼łæĴŃ": 3352,
      "è§£åĨ³éĹ®é¢ĺ": 3353,
      "åĮºåĿĹéĵ¾": 3354,
      "æİ¨åĩº": 3355,
      "çļĦæ¯Ķ": 3356,
      "çļĦçŁ¥": 3357,
      "æĺİæĺ¾": 3358,
      "ç§»åĬ¨": 3359,
      "çļĦæķ°éĩı": 3360,
      "éĻĨ": 3361,
      "éĿŀå¸¸å¥½": 3362,
      "ç»´æĬ¤": 3363,
      "çľĭçľĭ": 3364,
      "é¢ĦæĬ¥": 3365,
      "åĳĪçİ°": 3366,
      "èī¾": 3367,
      "çļĦç¥": 3368,
      "å¹¶æ²¡æľī": 3369,
      "çº¯": 3370,
      "ä½ĨæĪĳ": 3371,
      "å¯¹çİ¯å¢ĥ": 3372,
      "éķľ": 3373,
      "å·¨å¤§": 3374,
      "çĶ²": 3375,
      "æĻºèĥ½å®¶å±ħ": 3376,
      "å®¡": 3377,
      "çĸ²": 3378,
      "çĺ": 3379,
      "çĽ´åĪ°": 3380,
      "åį±éĻ©": 3381,
      "æĳĦåħ¥": 3382,
      "éĽ·": 3383,
      "ï¼ļãĢĬ": 3384,
      "çªģçĦ¶": 3385,
      "çļĦè¡Įä¸º": 3386,
      "åĲĮä¹īè¯į": 3387,
      "èī¯å¥½": 3388,
      "æĭ¼åĨĻ": 3389,
      "çļĦæ±": 3390,
      "è¸ª": 3391,
      "è¿ĩåº¦": 3392,
      "ç¾İåħĥ": 3393,
      "åĴĮç¤¾ä¼ļ": 3394,
      "åĮºåŁŁ": 3395,
      "å¡«": 3396,
      "ç¡¬": 3397,
      "çļĦéĢīæĭ©": 3398,
      "è§Ħå¾ĭ": 3399,
      "æĤ¨éľĢè¦ģ": 3400,
      "èĻ«": 3401,
      "éĵ¶è¡Į": 3402,
      "æŃ¦": 3403,
      "åĨ¥æĥ³": 3404,
      "çī¹æ®Ĭ": 3405,
      "å±ĭ": 3406,
      "éĴ¢": 3407,
      "åĶĲ": 3408,
      "åĽŀå®¶": 3409,
      "çļĦçĥŃ": 3410,
      "æį·": 3411,
      "Ġ2": 3412,
      "âĢ¦": 3413,
      "æĶ¯ä»ĺ": 3414,
      "çĽ®çļĦ": 3415,
      "çļĦçĿ": 3416,
      "çļĦç¼": 3417,
      "éļıæĹ¶": 3418,
      "å°ıçĭĹ": 3419,
      "çĶ°": 3420,
      "åīįæĻ¯": 3421,
      "çĵ¶": 3422,
      "åı¯çĪ±": 3423,
      "èħ¿": 3424,
      "å»ºè®¾": 3425,
      "çĶŁæĪĲä¸Ģæ®µ": 3426,
      "äººæ°ĳ": 3427,
      "ä¸°å¯ĮçļĦ": 3428,
      "å¤§èĩªçĦ¶": 3429,
      "çĶ¨çļĦ": 3430,
      "åĽŀæĶ¶": 3431,
      "ä¸ĭåįĪ": 3432,
      "åı¹": 3433,
      "ä»ĸä»¬çļĦå¯¹è¯ĿåĨħå®¹": 3434,
      "å¹ķ": 3435,
      "çļĦæ¸©": 3436,
      "æł·çļĦ": 3437,
      "åĦ¿ç«¥": 3438,
      "æµ®": 3439,
      "æ·¡": 3440,
      "åĪĨæĪĲ": 3441,
      "éĩįå¤į": 3442,
      "åŃĲçļĦ": 3443,
      "éĹª": 3444,
      "èĦ¸": 3445,
      "åĪ°è¾¾": 3446,
      "æĭĽ": 3447,
      "åŁºåĽł": 3448,
      "å¦ĤæŃ¤": 3449,
      "åĪĽå»ºä¸Ģä¸ª": 3450,
      "æĪĳæľĢè¿ĳ": 3451,
      "ç¾İå¥½": 3452,
      "ä»İæĸĩç«łä¸ŃæıĲåıĸ": 3453,
      "æĦīå¿«": 3454,
      "æľīæ²¡æľī": 3455,
      "åĵģç§į": 3456,
      "æģ©": 3457,
      "æĶ¾åħ¥": 3458,
      "çļĦç¨": 3459,
      "çļĦæ¸¸": 3460,
      "æ´Ľ": 3461,
      "åı¯åĨįçĶŁ": 3462,
      "æľīè®¸å¤ļ": 3463,
      "çĶµåŃĲéĤ®ä»¶": 3464,
      "æĸ¼": 3465,
      "å¡ŀ": 3466,
      "ç¯®çĲĥ": 3467,
      "æ¶µ": 3468,
      "ä»İæĸĩç«łä¸ŃæıĲåıĸåĩº": 3469,
      "ç©¿çĿĢ": 3470,
      "è¿Ŀ": 3471,
      "æĪĳä»¬å°Ĩ": 3472,
      "åľ¨äºİ": 3473,
      "çī¹èī²": 3474,
      "æīĺ": 3475,
      "çļĦä¸Ģç§į": 3476,
      "ç§ĭå¤©": 3477,
      "èµ¢": 3478,
      "çļĦæĥ³æ³ķ": 3479,
      "è¢«è®¤ä¸º": 3480,
      "çļĦæ¼": 3481,
      "ĽåĽ´": 3482,
      "çĶŁç´ł": 3483,
      "æľĢå¤§": 3484,
      "ä¿ĿæĬ¤çİ¯å¢ĥ": 3485,
      "éŁ©": 3486,
      "èĥŀ": 3487,
      "è¿Ļé¡¹": 3488,
      "åĵģå°Ŀ": 3489,
      "çļĦæķĻ": 3490,
      "åł¡": 3491,
      "çļĦæīĢæľī": 3492,
      "çļĦçĿ¡": 3493,
      "é£ŁæĿĲ": 3494,
      "çļĦåŁİå¸Ĥ": 3495,
      "å¹³éĿ¢": 3496,
      "çļĦåįķè¯į": 3497,
      "äºĪ": 3498,
      "æķ°åŃ¦é¢ĺ": 3499,
      "éļ¾ä»¥": 3500,
      "éĤ£ä¸ª": 3501,
      "çī©ç§į": 3502,
      "æııè¿°äºĨ": 3503,
      "éģĩåĪ°": 3504,
      "åįł": 3505,
      "é£İæĻ¯": 3506,
      "æĪĲå°±": 3507,
      "æĻ´": 3508,
      "è®°å¿Ĩ": 3509,
      "æĪĲåĪĨ": 3510,
      "åı¯ä»¥è®©": 3511,
      "çļĦæŃĮ": 3512,
      "çļĦç½": 3513,
      "ä¸ĢæĿ¡": 3514,
      "åįĸ": 3515,
      "çĿĽ": 3516,
      "å°º": 3517,
      "è§Ħæ¨¡": 3518,
      "çļĦæĦŁè§ī": 3519,
      "æª": 3520,
      "åĲ«æľī": 3521,
      "æī¹": 3522,
      "çĶŁæĪĲåķĨåĵģæĸĩæ¡Ī": 3523,
      "å½Ĵç±»ä¸º": 3524,
      "è¿Ļé¦ĸ": 3525,
      "æĿ¥æºĲ": 3526,
      "çĪĨ": 3527,
      "å»ºè®®æĤ¨": 3528,
      "éĢĥ": 3529,
      "ä¸Ģé¡¹": 3530,
      "ä»Ķ": 3531,
      "è¿ĺåī©ä¸ĭ": 3532,
      "å°½åı¯èĥ½": 3533,
      "çļĦä½¿çĶ¨": 3534,
      "ä¸»è¯Ń": 3535,
      "çļĦæłĩé¢ĺ": 3536,
      "æĹ©é¤Ĳ": 3537,
      "é£ŀè¡Į": 3538,
      "çĹĩçĬ¶": 3539,
      "è¿Ľè¡ĮäºĨ": 3540,
      "çļĦè¿ĲåĬ¨": 3541,
      "çł´åĿı": 3542,
      "çļĦä¸»è¦ģåĨħå®¹": 3543,
      "ç¬¬ä¸ī": 3544,
      "åĨľä¸ļ": 3545,
      "æ·ĭ": 3546,
      "åŃ¦ä¼ļ": 3547,
      "å½¢è±¡": 3548,
      "çļĦçĿ¡çľł": 3549,
      "åĲī": 3550,
      "æľīæķĪåľ°": 3551,
      "ä¼Ĭ": 3552,
      "çļĦç¤¾ä¼ļ": 3553,
      "çļĦéľĢæ±Ĥ": 3554,
      "ç¬¦åı·": 3555,
      "ä»ĸäºº": 3556,
      "é¦Ī": 3557,
      "çŀ": 3558,
      "èĤº": 3559,
      "æŃĮæĽ²": 3560,
      "Ġ3": 3561,
      "åıĬåħ¶": 3562,
      "æľŁå¾ħ": 3563,
      "åį«çĶŁ": 3564,
      "ä¾¿åĪ©": 3565,
      "æīĢéľĢ": 3566,
      "ç»Ļå®ļçļĦæĸĩæľ¬": 3567,
      "èľĤ": 3568,
      "æĪ´": 3569,
      "èĭ¥": 3570,
      "äºĶä¸ª": 3571,
      "åī¯": 3572,
      "åħħæ»¡äºĨ": 3573,
      "é»Ħèī²": 3574,
      "åģĩè®¾": 3575,
      "åĴĮæĮĳæĪĺ": 3576,
      "åĬ©æīĭ": 3577,
      "æĦŁåħ´è¶£": 3578,
      "å¼±": 3579,
      "é£ŁçĶ¨": 3580,
      "GP": 3581,
      "åĬŀåħ¬": 3582,
      "æĢķ": 3583,
      "æ±¤å§Ĩ": 3584,
      "å¸¸è§ģçļĦ": 3585,
      "ç´¯": 3586,
      "è¿Ľå±ķ": 3587,
      "æĳĺ": 3588,
      "æĪĺäºī": 3589,
      "çļĦç©º": 3590,
      "è§Ħå®ļ": 3591,
      "åºĶè¯¥æĺ¯": 3592,
      "åİŁçĲĨ": 3593,
      "çľĭåĪ°äºĨ": 3594,
      "çļĦæĶ¯": 3595,
      "çĿ£": 3596,
      "Ġå°Ĩ": 3597,
      "çļĦæ·": 3598,
      "åĸľå¥½": 3599,
      "æ¡¥": 3600,
      "ç¾İçļĦ": 3601,
      "æ£Ģæµĭ": 3602,
      "éĿŀå¸¸éĩįè¦ģ": 3603,
      "çĻ¼": 3604,
      "é¡¾å®¢": 3605,
      "æĢ§åĪ«": 3606,
      "æ²Ļæ»©": 3607,
      "æĤ²": 3608,
      "åº¦è¿ĩ": 3609,
      "å°±ä¸ļ": 3610,
      "åĵ¦": 3611,
      "åıĺæĪĲ": 3612,
      "éĩĮæľī": 3613,
      "æģĴ": 3614,
      "çļĦçŁ¥è¯Ĩ": 3615,
      "éĩĮçļĦ": 3616,
      "èĸĦ": 3617,
      "ä¹ĭå¤ĸ": 3618,
      "çļĦæĻºèĥ½": 3619,
      "éĿ¢ç§¯": 3620,
      "åĲ¹": 3621,
      "ä¸ĵæ³¨": 3622,
      "çļĦå®īåħ¨": 3623,
      "è¯Ŀé¢ĺ": 3624,
      "ç¼ºä¹ı": 3625,
      "æĻĤ": 3626,
      "å²¸": 3627,
      "æ¸©å®¤æ°Ķä½ĵ": 3628,
      "åĨħå¿ĥ": 3629,
      "é¢Ħç®Ĺ": 3630,
      "éĽĦ": 3631,
      "ä»°": 3632,
      "ä¸ĢæĿ¯": 3633,
      "åŁĥ": 3634,
      "åı¯éĿł": 3635,
      "åı¯ä»¥æıĲé«ĺ": 3636,
      "æĹ¶åħī": 3637,
      "éĻĦè¿ĳ": 3638,
      "åĲ¬è¯´": 3639,
      "è£ħé¥°": 3640,
      "åĴĮæ²»çĸĹ": 3641,
      "æ¡£": 3642,
      "å·®å¼Ĥ": 3643,
      "é£ĺ": 3644,
      "è§£éĩĬä¸Ģä¸ĭ": 3645,
      "æ¸¯": 3646,
      "è®¡ç®Ĺæľºç§ĳåŃ¦": 3647,
      "çļĦæĮĩ": 3648,
      "æĦīæĤ¦": 3649,
      "èĬ±åĽŃ": 3650,
      "èĩªä¿¡": 3651,
      "çĸ«èĭĹ": 3652,
      "è®¾æĸ½": 3653,
      "å§ĵ": 3654,
      "å®ŀæĸ½": 3655,
      "æıĲéĨĴ": 3656,
      "æĺ¯æĪĳ": 3657,
      "åī§æĥħ": 3658,
      "æµªè´¹": 3659,
      "ç»ĦåĲĪ": 3660,
      "ãĢģâĢľ": 3661,
      "åĮĸåĴĮ": 3662,
      "æīĢåľ¨": 3663,
      "èİ«": 3664,
      "è´¢åĬ¡": 3665,
      "ä¸»è§Ĵ": 3666,
      "çĶµè¯Ŀ": 3667,
      "ä¸Ģéĥ¨": 3668,
      "ä¸ªæľĭåıĭ": 3669,
      "çļĦè¯Ńè¨Ģ": 3670,
      "åĿĩåĮĢ": 3671,
      "åĴĮä¸į": 3672,
      "in": 3673,
      "çĹħäºº": 3674,
      "çļĦåģ¥åº·": 3675,
      "æĺ¯ä¸ĢåĲį": 3676,
      "åľ¨è¿Ļ": 3677,
      "ä¸ŃæĢ§": 3678,
      "éģĩåĪ°äºĨ": 3679,
      "å¤§æķ°æį®": 3680,
      "åĪĨæŀĲåĴĮ": 3681,
      "èİ·å¾ĹäºĨ": 3682,
      "æł¹æį®ç»Ļå®ļçļĦæĸĩæľ¬": 3683,
      "åİ¨": 3684,
      "åıįé¦Ī": 3685,
      "éļĶ": 3686,
      "åĴĮä¸Ģä¸ª": 3687,
      "æıĲåĩºäºĨ": 3688,
      "éħĴåºĹ": 3689,
      "çĽĴ": 3690,
      "ç»Ĩèĥŀ": 3691,
      "æĪĲåĳĺ": 3692,
      "çĪ¬": 3693,
      "åĨįæ¬¡": 3694,
      "ä¸ĢäºĽåħ³äºİ": 3695,
      "å¿§": 3696,
      "çĨĬçĮ«": 3697,
      "æ°ı": 3698,
      "ä»¥ä¸ĭæĺ¯ä¸Ģéģĵ": 3699,
      "åħ¨éĿ¢": 3700,
      "çĪ½": 3701,
      "èĦī": 3702,
      "æĶ¶éĽĨ": 3703,
      "åĵ²åŃ¦": 3704,
      "å¸¸å¸¸": 3705,
      "ç¦ģ": 3706,
      "èįīèİĵ": 3707,
      "èµĸ": 3708,
      "er": 3709,
      "åı¯åĨįçĶŁèĥ½æºĲ": 3710,
      "æµªæ¼«": 3711,
      "èĳ¡èĲ": 3712,
      "èĳ¡èĲĦ": 3713,
      "ä¼Ł": 3714,
      "ä¸įå¤ª": 3715,
      "è§Ĵåº¦": 3716,
      "åŃĹæ¯į": 3717,
      "åħĶ": 3718,
      "çĲĨè§£åĴĮ": 3719,
      "çļĦé¢ľèī²": 3720,
      "çķªèĮĦ": 3721,
      "å¤ªéĺ³èĥ½": 3722,
      "å°ıåŃ¦æķ°åŃ¦é¢ĺ": 3723,
      "å¯¹äººç±»": 3724,
      "æĪĲç»©": 3725,
      "è¯·æıĲä¾Ľ": 3726,
      "ä»¥ä¸ĭæĺ¯ä¸Ģéģĵå°ıåŃ¦æķ°åŃ¦é¢ĺ": 3727,
      "ä¸Ĭè¿°": 3728,
      "æĬ«èĲ¨": 3729,
      "åº¦åģĩ": 3730,
      "ä½łè®¤ä¸º": 3731,
      "éĺ´": 3732,
      "æķ¦": 3733,
      "çı¾": 3734,
      "ç¦»å¼Ģ": 3735,
      "ãĢĭãĢĤ": 3736,
      "çķĻä¸ĭ": 3737,
      "å®¤åĨħ": 3738,
      "çĤ¸": 3739,
      "åĴĮåıĳå±ķ": 3740,
      "æ¶īåıĬåĪ°": 3741,
      "æįķ": 3742,
      "äººåľ¨": 3743,
      "åı¦ä¸Ģä¸ª": 3744,
      "çŃīéĹ®é¢ĺ": 3745,
      "æĻºæħ§": 3746,
      "èĩªä¸»": 3747,
      "éĥ¨éĹ¨": 3748,
      "ç²Ĵ": 3749,
      "çºłéĶĻ": 3750,
      "çļĦæĦıä¹ī": 3751,
      "ä¼łè¾¾": 3752,
      "ç»´çĶŁç´ł": 3753,
      "åħįçĸ«": 3754,
      "èĤ¯å®ļ": 3755,
      "çĶ·åŃ©": 3756,
      "¹é¥": 3757,
      "åĪĻæĺ¯": 3758,
      "å¤§å°ı": 3759,
      "å½¢çĬ¶": 3760,
      "æĽ¾ç»ı": 3761,
      "çī©çĲĨåŃ¦": 3762,
      "å°Ĩå®ĥä»¬": 3763,
      "æĲħ": 3764,
      "éģŃ": 3765,
      "èı²": 3766,
      "¹é¥ª": 3767,
      "è¯¢éĹ®": 3768,
      "åĶ¯": 3769,
      "æĤł": 3770,
      "ä¹ĭå¤Ħ": 3771,
      "çļĦæł¸": 3772,
      "æĸ°åŀĭ": 3773,
      "æĮĩå®ļ": 3774,
      "åĲĪéĢĤçļĦ": 3775,
      "æ¬§æ´²": 3776,
      "èĮĥåĽ´åĨħ": 3777,
      "æī°": 3778,
      "çļĦç»ĵæŀľ": 3779,
      "æ¸¸å®¢": 3780,
      "ç´§å¼ł": 3781,
      "ä¼¼ä¹İ": 3782,
      "om": 3783,
      "çļĩ": 3784,
      "èĢĥè¯ķ": 3785,
      "èıľåĵģ": 3786,
      "åĪºæ¿Ģ": 3787,
      "æŀģç«¯": 3788,
      "ä¹±": 3789,
      "çº·": 3790,
      "ä¸ºæĤ¨æıĲä¾Ľ": 3791,
      "è®¾ç½®": 3792,
      "æĸ¹éĿ¢çļĦ": 3793,
      "è·¨": 3794,
      "åĭķ": 3795,
      "çļĦç²¾": 3796,
      "å¿ł": 3797,
      "çļĦæ²»": 3798,
      "å°±åı¯ä»¥": 3799,
      "æī¬": 3800,
      "25": 3801,
      "åĨħéĥ¨": 3802,
      "è·¯ä¸Ĭ": 3803,
      "ç»¼åĲĪ": 3804,
      "æĺ¥å¤©": 3805,
      "ç´«": 3806,
      "11": 3807,
      "å°ıæĺİæīĭ": 3808,
      "åĩºå¤Ħ": 3809,
      "ä¸ŃçļĦåºĶçĶ¨": 3810,
      "çļĦç³ĸæŀľ": 3811,
      "çļĦæ¶": 3812,
      "è¿Ķ": 3813,
      "âĢĿãĢģâĢľ": 3814,
      "åıĤè§Ĥ": 3815,
      "ä¹Ķ": 3816,
      "å¹´è½»çļĦ": 3817,
      "æľīä¸Ģ": 3818,
      "åħĪçĶŁ": 3819,
      "æľīä¸ĢäºĽ": 3820,
      "å¢Ļ": 3821,
      "è¿ħéĢŁ": 3822,
      "éĿŀå¸¸æĦŁè°¢": 3823,
      "å°Ĩåľ¨": 3824,
      "è¿Ļä¸¤ä¸ª": 3825,
      "è´´": 3826,
      "èĥ¡": 3827,
      "çļĦæıĲ": 3828,
      "åĪĨåŃĲ": 3829,
      "è¿Ļå®¶é¤Ĳåİħ": 3830,
      "ä¸ĭéĻį": 3831,
      "èĬĤçº¦": 3832,
      "å¯¹æĸ¹": 3833,
      "çģŃ": 3834,
      "æĻ¨": 3835,
      "çļĦä¸Ģæ®µ": 3836,
      "åħ´å¥ĭ": 3837,
      "çļĦæ¼Ķ": 3838,
      "æľīçĤ¹": 3839,
      "çļĦæŀ": 3840,
      "éĺ²æŃ¢": 3841,
      "èĤ´": 3842,
      "GPT": 3843,
      "çĶµæ±ł": 3844,
      "æĺ¯éĿŀå¸¸": 3845,
      "è½¦è¾Ĩ": 3846,
      "å·¨å¤§çļĦ": 3847,
      "åħ·å¤ĩ": 3848,
      "é¡ºåºı": 3849,
      "åĬłä¸Ĭ": 3850,
      "èĩªçĦ¶çģ¾å®³": 3851,
      "è¦Ĩ": 3852,
      "è¢ĸ": 3853,
      "åĮ»éĻ¢": 3854,
      "äº§çĶŁäºĨ": 3855,
      "æĲħæĭĮ": 3856,
      "è¯¥æĸĩæľ¬": 3857,
      "åĵĪåĪ©": 3858,
      "æ¬²": 3859,
      "ç¾Ĭ": 3860,
      "çŃīå¾ħ": 3861,
      "è¯Ńæ°Ķ": 3862,
      "å¤§çº¦": 3863,
      "ä¸¾è¡Į": 3864,
      "éĩįè§Ĩ": 3865,
      "å±ħæ°ĳ": 3866,
      "å¾Īæľī": 3867,
      "å¼Ģå¤´": 3868,
      "ä¼ĺè´¨": 3869,
      "æĥ³æ³ķ": 3870,
      "çļĦå°ıè¯´": 3871,
      "æµ·å¹³éĿ¢": 3872,
      "ä¸»è¦ģè§ĤçĤ¹": 3873,
      "çĶŁæĪĲä¸Ģç¯ĩ": 3874,
      "è®¤çŁ¥": 3875,
      "èİī": 3876,
      "æľīçļĦ": 3877,
      "æīĵå¼Ģ": 3878,
      "èĬ³": 3879,
      "åį³ä½¿": 3880,
      "åħħè¶³": 3881,
      "èĤĮèĤī": 3882,
      "èĴ¸": 3883,
      "æĸĩç«łä¸ŃçļĦ": 3884,
      "åħµ": 3885,
      "çļĦæĬĢèĥ½": 3886,
      "ä¾µ": 3887,
      "éĢĤå½ĵçļĦ": 3888,
      "æĪĲè¯Ńåĩºå¤Ħ": 3889,
      "æī®": 3890,
      "æĿ¥è§£åĨ³": 3891,
      "å°ıæĿİ": 3892,
      "æĹ¶åĪ»": 3893,
      "æ½ľåľ¨": 3894,
      "çļĦä¸Ģéĥ¨åĪĨ": 3895,
      "åįģå¹´": 3896,
      "çĮİ": 3897,
      "ç»Łè®¡": 3898,
      "è²Į": 3899,
      "ä¸Ģåľº": 3900,
      "æĮĩå¯¼": 3901,
      "é»ĳèī²": 3902,
      "å¿½": 3903,
      "é¤Ĳé¦Ĩ": 3904,
      "åŃĲéĩĮ": 3905,
      "åį°è±¡": 3906,
      "è¯·æıĲåıĸ": 3907,
      "Jo": 3908,
      "è¢«å¹¿æ³Ľ": 3909,
      "åĩĨç¡®åľ°": 3910,
      "hon": 3911,
      "äººåı£": 3912,
      "å½¼æŃ¤": 3913,
      "å½±åĥı": 3914,
      "åħĭæľį": 3915,
      "åĪĨå¸ĥ": 3916,
      "çİ¯å¢ĥæ±¡æŁĵ": 3917,
      "çľŁå®ŀ": 3918,
      "éĽĨä¸Ń": 3919,
      "ä½¿çĶ¨äºĨ": 3920,
      "è´¦": 3921,
      "å¿ĥèĦı": 3922,
      "çłĶåıĳ": 3923,
      "an": 3924,
      "çļĦæİªæĸ½": 3925,
      "èĩªèº«": 3926,
      "å¤ľæĻļ": 3927,
      "æĪĳè§īå¾Ĺ": 3928,
      "æİĴåºı": 3929,
      "çļĦè®¾è®¡": 3930,
      "å¤ļæķ°": 3931,
      "çĶµå½±çļĦ": 3932,
      "è¾ħåĬ©": 3933,
      "ä¿¡ä»»": 3934,
      "åĸ»": 3935,
      "æİĪ": 3936,
      "çļĦåŁºç¡Ģ": 3937,
      "åĨ¬åŃ£": 3938,
      "16": 3939,
      "èĢĮæĺ¯": 3940,
      "ãĢĭï¼Į": 3941,
      "äºĨå¾Īå¤ļ": 3942,
      "ç¨İ": 3943,
      "åħ¬éĩĮ": 3944,
      "åŁ¹åħ»": 3945,
      "æĴ°": 3946,
      "æľĢå¤§çļĦ": 3947,
      "è¶ħå¸Ĥ": 3948,
      "æĪĳæĺ¯": 3949,
      "çº¤": 3950,
      "ç¬¬ä¸Ģä¸ª": 3951,
      "å¿ĥçĲĨåģ¥åº·": 3952,
      "æľĢé«ĺ": 3953,
      "ç®Ģæ´ģæĺİäºĨ": 3954,
      "èĮ¨": 3955,
      "çĲ´": 3956,
      "æĬ½åıĸåĩº": 3957,
      "æĽ´å¿«": 3958,
      "åı¤èĢģ": 3959,
      "å®£å¸ĥ": 3960,
      "çļĦä»»åĬ¡": 3961,
      "é¡µ": 3962,
      "ä½ľä¸ºä¸Ģä¸ª": 3963,
      "æĶ»åĩ»": 3964,
      "äººä»¬çļĦ": 3965,
      "ç¢İ": 3966,
      "å¤§èĦĳ": 3967,
      "ä¸¤ç§į": 3968,
      "æĸĩæĺİ": 3969,
      "çĽ¾": 3970,
      "çļĦæ²»çĸĹ": 3971,
      "åĴª": 3972,
      "çļĦæł¸å¿ĥ": 3973,
      "äººä½ĵ": 3974,
      "å¯Ĩçłģ": 3975,
      "ç£¨": 3976,
      "æĤ¬": 3977,
      "éĢ²": 3978,
      "çļĦæľįåĬ¡": 3979,
      "åĬ¨åĬĽ": 3980,
      "è®¡ç®Ĺæľºè§Ĩè§ī": 3981,
      "éĺ»": 3982,
      "èį·": 3983,
      "æĪĳæ²¡æľī": 3984,
      "çļĦæ¦Ĥå¿µ": 3985,
      "åĽ¾ä¹¦": 3986,
      "è¿ĳå¹´æĿ¥": 3987,
      "æĢ»çļĦ": 3988,
      "æŀĦå»º": 3989,
      "è§Ĩä¸º": 3990,
      "å¹¶ä¸º": 3991,
      "èĢį": 3992,
      "åŃĲåĴĮ": 3993,
      "èĤ¡ç¥¨": 3994,
      "åħ¬æŃ£": 3995,
      "å¾Īå¤§": 3996,
      "çİ©å®¶": 3997,
      "çļĦæ¢": 3998,
      "çĶĺ": 3999,
      "ä½ľå®¶": 4000,
      "éĩįå¤§": 4001,
      "æĪĸåħ¶ä»ĸ": 4002,
      "éķ¿æĹ¶éĹ´": 4003,
      "éĺµ": 4004,
      "èĩ³åħ³": 4005,
      "å¾ªçİ¯": 4006,
      "åĩ½": 4007,
      "æıĲç¤º": 4008,
      "åıªèĥ½": 4009,
      "åħ¬åĽŃéĩĮ": 4010,
      "åı¯ä»¥å°Ĩ": 4011,
      "æ²¿": 4012,
      "åŃĺåĤ¨": 4013,
      "ħåĬĽ": 4014,
      "åĲįä¸º": 4015,
      "è¿Ľè¡Įæĳĺè¦ģ": 4016,
      "æĺİçĻ½": 4017,
      "äº§åĵģçļĦ": 4018,
      "é¢ĨåŁŁçļĦ": 4019,
      "æĽ´å®¹æĺĵ": 4020,
      "æĿİæĺİ": 4021,
      "æ¢ħ": 4022,
      "çļĦç½ĳ": 4023,
      "æĽ¼": 4024,
      "ä¸Ģåħ±æľī": 4025,
      "çļĦæ¬": 4026,
      "åĴĮå®īåħ¨": 4027,
      "ç»ĵæĿŁ": 4028,
      "ä½łè§īå¾Ĺ": 4029,
      "è£Ļ": 4030,
      "hn": 4031,
      "éł": 4032,
      "ä¸ĭéĽ¨": 4033,
      "çļĦç¾İé£Ł": 4034,
      "çĳŀ": 4035,
      "èıĮ": 4036,
      "å°½éĩı": 4037,
      "æ¯ķ": 4038,
      "çļĦåĬ¨çī©": 4039,
      "èº«ä»½": 4040,
      "æİĺ": 4041,
      "åĨ³äºİ": 4042,
      "çŁ¿": 4043,
      "åıĸåĨ³äºİ": 4044,
      "æł¹æį®ç»Ļå®ļ": 4045,
      "çļĦåŁºæľ¬": 4046,
      "è§Ĵèī²ä¿¡æģ¯": 4047,
      "æĪĳä»¬çļĦçĶŁæ´»": 4048,
      "çģ°": 4049,
      "ä¿Ŀéļľ": 4050,
      "æĭĵ": 4051,
      "ä»·åĢ¼è§Ĥ": 4052,
      "åıĳæĺİ": 4053,
      "è±ª": 4054,
      "çļĦçĶŁæ´»æĸ¹å¼ı": 4055,
      "æ¼Ĥäº®": 4056,
      "ç»ıçĲĨ": 4057,
      "ä¸ºä½ł": 4058,
      "åĽŀçŃĶè¿Ļä¸ªéĹ®é¢ĺ": 4059,
      "åĴĮåºĶçĶ¨": 4060,
      "000": 4061,
      "çļĦäº§åĵģ": 4062,
      "åĲĦåľ°": 4063,
      "åĲĽ": 4064,
      "è½¬åĮĸ": 4065,
      "åķĨåĬ¡": 4066,
      "å°ıçĮ«": 4067,
      "æĢ»çļĦæĿ¥è¯´": 4068,
      "èµ¢å¾Ĺ": 4069,
      "è¯¸": 4070,
      "èģĺ": 4071,
      "çļĦæ½": 4072,
      "çĬ¯ç½ª": 4073,
      "è¯ģæį®": 4074,
      "Ã·": 4075,
      "çº¹": 4076,
      "ä¼¯": 4077,
      "æĳĨ": 4078,
      "ç»´æĮģ": 4079,
      "æĢİæł·": 4080,
      "John": 4081,
      "è¯ķåĽ¾": 4082,
      "é²ģ": 4083,
      "ç¼ºçĤ¹": 4084,
      "æĥ³è±¡": 4085,
      "æŁ¥è¯¢": 4086,
      "åı¯ä»¥éĢīæĭ©": 4087,
      "æĿİåĽĽ": 4088,
      "ä¹ŁéľĢè¦ģ": 4089,
      "Ġå¥½çļĦ": 4090,
      "çļĦçľĭ": 4091,
      "ä¸Ģä»¶": 4092,
      "åĭĩæ°Ķ": 4093,
      "å¤§éĩıçļĦ": 4094,
      "çļĦåĲ«ä¹ī": 4095,
      "èĻİ": 4096,
      "ä»¥æĿ¥": 4097,
      "ä»Ĭå¹´": 4098,
      "æĻĴ": 4099,
      "ä»İè¿Ļç¯ĩæĸĩç«łä¸ŃæıĲåıĸåĩº": 4100,
      "æŁĶè½¯": 4101,
      "æľīæķĪçļĦ": 4102,
      "ä¼¦æķ¦": 4103,
      "åŃĹç¬¦": 4104,
      "æľªçŁ¥": 4105,
      "å§Ķ": 4106,
      "çĽĳæµĭ": 4107,
      "è®¸å¤ļäºº": 4108,
      "AIæĬĢæľ¯": 4109,
      "åı¯ä»¥æł¹æį®": 4110,
      "èİ±": 4111,
      "åĴĮæľįåĬ¡": 4112,
      "åľĪ": 4113,
      "å¿ĥåĴĮ": 4114,
      "åĪļåĪļ": 4115,
      "ä»ª": 4116,
      "ä½Ĩä»ĸ": 4117,
      "éĢĬ": 4118,
      "æĺ¯åħ³äºİ": 4119,
      "ä¸ªæĢ§åĮĸ": 4120,
      "ä¸İåħ¶ä»ĸ": 4121,
      "æĺ¯æľĢ": 4122,
      "åį§": 4123,
      "åīª": 4124,
      "é¸£": 4125,
      "çłĶç©¶è¡¨æĺİ": 4126,
      "æĥħæĦŁåĪĨæŀĲ": 4127,
      "å¹½": 4128,
      "çļĦåıĺåĮĸ": 4129,
      "çİ©èĢį": 4130,
      "åıĤèĢĥ": 4131,
      "å¥½å¤Ħ": 4132,
      "çļĦçĸ": 4133,
      "ä¸ĵå®¶": 4134,
      "èĢħçļĦ": 4135,
      "èĢĮè¨Ģ": 4136,
      "å°ıåįİ": 4137,
      "ç¡®å®ŀ": 4138,
      "è¿Ļç¯ĩæĸĩç«łä¸Ń": 4139,
      "çĽĳçĿ£": 4140,
      "çļ®èĤ¤": 4141,
      "ä¼Ļ": 4142,
      "ä¸įè¶³": 4143,
      "çļĦæĥħåĨµä¸ĭ": 4144,
      "ç¢į": 4145,
      "éĻ·": 4146,
      "æ°¸è¿ľ": 4147,
      "å°±ä¼ļ": 4148,
      "èĬĿ": 4149,
      "çºłæŃ£": 4150,
      "éĤĢ": 4151,
      "è´Łè´£": 4152,
      "å§¿": 4153,
      "æĢª": 4154,
      "çļĦåħ·ä½ĵ": 4155,
      "çļĦæĶ¯æĮģ": 4156,
      "æģĭ": 4157,
      "éĩĮéĿ¢": 4158,
      "éĩĩåıĸæİªæĸ½": 4159,
      "æľīçĽĬ": 4160,
      "åĲĮåŃ¦": 4161,
      "åĴĮè°": 4162,
      "æŀĿ": 4163,
      "èħĲ": 4164,
      "è¯ģæĺİ": 4165,
      "åį°åº¦": 4166,
      "å¤§åŀĭ": 4167,
      "åĩ¡": 4168,
      "åĩºè¡Į": 4169,
      "è¯Ńåı¥": 4170,
      "è°ĥåĳ³": 4171,
      "æ¥ļ": 4172,
      "çļĦè¿ĩç¨ĭ": 4173,
      "å¹´è½»äºº": 4174,
      "çļĦæĢģ": 4175,
      "çİ©åħ·": 4176,
      "è®¿éĹ®": 4177,
      "ç®Ģçº¦": 4178,
      "çļĦé£İæł¼": 4179,
      "è°Ĭ": 4180,
      "åĽłä¸ºå®ĥä»¬": 4181,
      "äºĭæķħ": 4182,
      "æŃ»äº¡": 4183,
      "ä»¥ä¸ĭæ®µèĲ½": 4184,
      "åı¯èĥ½å¯¼èĩ´": 4185,
      "æĪĳæĥ³çŁ¥éģĵ": 4186,
      "å®ŀçĶ¨": 4187,
      "åĸľçĪ±": 4188,
      "æª¬": 4189,
      "æĽ´ä¸º": 4190,
      "å±±å³°": 4191,
      "æīĭæ®µ": 4192,
      "äº§ä¸ļ": 4193,
      "è§Ĥçľĭ": 4194,
      "çļĦæĥħç»ª": 4195,
      "åıĸå¾ĹäºĨ": 4196,
      "ce": 4197,
      "éĺĶ": 4198,
      "è¡«": 4199,
      "æĭĶ": 4200,
      "è¿ĻæĦıåĳ³çĿĢ": 4201,
      "æµģç¨ĭ": 4202,
      "Ġ1": 4203,
      "å°ıæĺİåĴĮ": 4204,
      "ĽçĽ¾": 4205,
      "æĳĩ": 4206,
      "łæª¬": 4207,
      "å±ı": 4208,
      "æŁ¥çľĭ": 4209,
      "çļĦæĹħæ¸¸": 4210,
      "çļĦçĬ": 4211,
      "å²©": 4212,
      "è¿ĲçĶ¨": 4213,
      "è¶³å¤ŁçļĦ": 4214,
      "ä¸Ģæ®µæĸĩæľ¬": 4215,
      "äººå£«": 4216,
      "èĴľ": 4217,
      "æ£ī": 4218,
      "åľ°ä¸Ĭ": 4219,
      "le": 4220,
      "çĶ·åŃĲ": 4221,
      "ä¿Ĺ": 4222,
      "åŀĥåľ¾åĪĨç±»": 4223,
      "è¢«ç§°ä¸º": 4224,
      "æĦŁåĪ°éĿŀå¸¸": 4225,
      "èĴĤ": 4226,
      "èıľèĤ´": 4227,
      "æŃ£å¼ı": 4228,
      "åŁ¹è®Ń": 4229,
      "å¤ļæł·æĢ§": 4230,
      "æĪĳä¸į": 4231,
      "æł¹æį®ä»¥ä¸ĭæĸĩæľ¬": 4232,
      "åĭĩæķ¢": 4233,
      "ç¼ĸåĨĻä¸Ģä¸ª": 4234,
      "ç©Ĩ": 4235,
      "åĢĴåħ¥": 4236,
      "å¹´ä»£": 4237,
      "åİĺ": 4238,
      "éķ¿çļĦ": 4239,
      "çĽ¸åıį": 4240,
      "è¿Ļæ¬¡": 4241,
      "å½±çīĩ": 4242,
      "ä¸ģ": 4243,
      "åħ³éĶ®åŃĹ": 4244,
      "çļĦçĭĹ": 4245,
      "âĢĿãĢĤ<|": 4246,
      "æī®æ¼Ķ": 4247,
      "ä¸»äººåħ¬": 4248,
      "çļĦçľĭæ³ķ": 4249,
      "æĬĢæľ¯åĴĮ": 4250,
      "æ²Ļæĭī": 4251,
      "åĪ©çĽĬ": 4252,
      "åľºæīĢ": 4253,
      "çĥ¹é¥ª": 4254,
      "è£ģ": 4255,
      "æĳ©": 4256,
      "æĶ¶åħ¥": 4257,
      "çĽŁ": 4258,
      "çļĦæĬķ": 4259,
      "å±ķå¼Ģ": 4260,
      "ç§Ł": 4261,
      "çļĦæ¸¸æĪı": 4262,
      "\"<|": 4263,
      "äº¤äºĴ": 4264,
      "17": 4265,
      "åĪĺ": 4266,
      "æŃ£å¸¸": 4267,
      "çģµæ´»": 4268,
      "å¼ķåıĳ": 4269,
      "æĪĲåĬŁçļĦ": 4270,
      "ä¾Ŀèµĸ": 4271,
      "ä¹Łä¸į": 4272,
      "æłĩçŃ¾": 4273,
      "æģ¢": 4274,
      "ä¸Ńæľī": 4275,
      "åĮ¹": 4276,
      "å®ŀæĹ¶": 4277,
      "æ¸ħæĸ°": 4278,
      "ä¸Ģå¹´": 4279,
      "çļĦæģ": 4280,
      "å½ĵæĹ¶": 4281,
      "éĩİçĶŁ": 4282,
      "çļĦä¸ĢäºĽ": 4283,
      "æĪĲæŀľ": 4284,
      "èĢģæĿ¿": 4285,
      "èģĮä½į": 4286,
      "åĿĢ": 4287,
      "æŁ¥æī¾": 4288,
      "æĻºèĥ½æīĭæľº": 4289,
      "å¤®": 4290,
      "å¿ħè¦ģçļĦ": 4291,
      "èŃ¦å¯Ł": 4292,
      "åĴĮæ°´": 4293,
      "æµ·å¹³éĿ¢ä¸Ĭåįĩ": 4294,
      "æĺ¾èĳĹ": 4295,
      "åľ¨ä¸ŃåĽ½": 4296,
      "æİ¢éĻ©": 4297,
      "çļĦçĽ®æłĩ": 4298,
      "è¿«": 4299,
      "å°¿": 4300,
      "æ³¢çī¹": 4301,
      "éĺ¶æ®µ": 4302,
      "æĭħå¿ĥ": 4303,
      "çļĦæ¢¦": 4304,
      "äºĮæ°§åĮĸ": 4305,
      "çļĦçī¹çĤ¹": 4306,
      "ä»Ļ": 4307,
      "çĸĳéĹ®": 4308,
      "è·ĥ": 4309,
      "çļĦæ³ķ": 4310,
      "åİŁæĸĩ": 4311,
      "åºĨç¥Ŀ": 4312,
      "ä¸ªæ©ĻåŃĲ": 4313,
      "ç«¹": 4314,
      "è®¤çľŁ": 4315,
      "å¢¨": 4316,
      "ä¸įè¶ħè¿ĩ": 4317,
      "çĭ®": 4318,
      "åı¯ä»¥çĶ¨": 4319,
      "ä»İè¿Ļç¯ĩæĸĩç«łä¸ŃæıĲåıĸ": 4320,
      "æĺĵæĩĤ": 4321,
      "æĹłéĻĲ": 4322,
      "åĲĮæł·": 4323,
      "æ·±è¿ľ": 4324,
      "å·¥èīº": 4325,
      "æ³ķè§Ħ": 4326,
      "å¿ĥæĢģ": 4327,
      "çļĦä¸ĸçķĮ": 4328,
      "ä¹°äºĨ": 4329,
      "çļĦçľŁ": 4330,
      "åħ¶ä¸ŃåĮħæĭ¬": 4331,
      "è°ĵè¯Ń": 4332,
      "é¸¡èĤī": 4333,
      "ä½ĵéĩį": 4334,
      "å¯¼æ¼Ķ": 4335,
      "è¦ģçĤ¹": 4336,
      "åŁİå¸ĤçļĦ": 4337,
      "èİİ": 4338,
      "åŃ¦ç§ĳ": 4339,
      "æĬĳ": 4340,
      "å¤§å¤ļæķ°": 4341,
      "æ¶µçĽĸ": 4342,
      "å·¥ç¨ĭå¸Ī": 4343,
      "èĬĤæĹ¥": 4344,
      "åĢ¼å¾Ĺä¸Ģ": 4345,
      "åı¯ä»¥èĢĥèĻĳ": 4346,
      "è¢«è®¤ä¸ºæĺ¯": 4347,
      "æī¾åĪ°äºĨ": 4348,
      "éĩĬæĶ¾": 4349,
      "æľĢéĩįè¦ģ": 4350,
      "é²¸": 4351,
      "ä¼¦çĲĨ": 4352,
      "çļĦçĮ": 4353,
      "éĥ½åľ¨": 4354,
      "å¦Ĥæŀľä½łåĸľæ¬¢": 4355,
      "åĲĥäºĨ": 4356,
      "åĲĪçī©": 4357,
      "éĹ®é¢ĺçļĦ": 4358,
      "çŁ¥åĲį": 4359,
      "åĴĮæĶ¯æĮģ": 4360,
      "å¼Ģå¿ĥ": 4361,
      "ä¸įæĸŃåľ°": 4362,
      "ä¸Ģç³»åĪĹ": 4363,
      "ç¡®è®¤": 4364,
      "åģļå¥½": 4365,
      "å¦Ĥä½ķåľ¨": 4366,
      "æĺ¯åĲ¦æľī": 4367,
      "æıŃ": 4368,
      "çº¤ç»´": 4369,
      "éľľ": 4370,
      "åıĭè°Ĭ": 4371,
      "çļĦæĽ": 4372,
      "é¸Ń": 4373,
      "æĭľ": 4374,
      "æĥľ": 4375,
      "çļĦæ¨": 4376,
      "çĩķ": 4377,
      "æĦŁæŁĵ": 4378,
      "è´§å¸ģ": 4379,
      "å°Ĩä»¥ä¸ĭæĸĩæľ¬": 4380,
      "å°Ĩä»¥ä¸ĭåı¥åŃĲ": 4381,
      "åĽ¾åĥıè¯ĨåĪ«": 4382,
      "å¼Ł": 4383,
      "å¾Ĵ": 4384,
      "åľ¨è¿ĩåİ»": 4385,
      "å°Ĭæķ¬": 4386,
      "çĭĹçĭĹ": 4387,
      "éģµå®Ī": 4388,
      "çļĦæ¶Ī": 4389,
      "é£Łè°±": 4390,
      "å¦ĩ": 4391,
      "æŁłæª¬": 4392,
      "æķĪçİĩåĴĮ": 4393,
      "çļĦä¸»æĹ¨": 4394,
      "åĩ½æķ°": 4395,
      "å¥½çľĭ": 4396,
      "èĤł": 4397,
      "äººç±»æ´»åĬ¨": 4398,
      "è¶ĬæĿ¥è¶Ĭå¤ļ": 4399,
      "æŃĮè¯į": 4400,
      "çĽĳç®¡": 4401,
      "æĽ¿ä»£": 4402,
      "æİ¨æĸŃ": 4403,
      "æĦıè¯ĨåĪ°": 4404,
      "æ®ĸ": 4405,
      "æĲº": 4406,
      "60": 4407,
      "ä¼ļå¯¼èĩ´": 4408,
      "2021": 4409,
      "èĤĸ": 4410,
      "çļĦç¥ŀ": 4411,
      "åľ¨å®¶éĩĮ": 4412,
      "è½»è½»": 4413,
      "æµ·è¾¹": 4414,
      "æĦ¿æĦı": 4415,
      "ç»ĻäºĨ": 4416,
      "æĪĳä¹Ł": 4417,
      "çļĦæŃ£": 4418,
      "æĻ®éĢļ": 4419,
      "éĨī": 4420,
      "ä¹ĭéĹ´çļĦåħ³ç³»": 4421,
      "å·²ç»ıæĪĲä¸º": 4422,
      "æĶ¯éĵħç¬Ķ": 4423,
      "åĽŀå¿Ĩ": 4424,
      "ä½łåľ¨": 4425,
      "è¯¥åħ¬åı¸": 4426,
      "åĸľæ¬¢åĲĥ": 4427,
      "éĥ½åı¯ä»¥": 4428,
      "åĪł": 4429,
      "çļĦæĳĦ": 4430,
      "çļĦæ·±": 4431,
      "éĻ¤ä»¥": 4432,
      "èıľåįķ": 4433,
      "æĹłäºº": 4434,
      "æĿ¥å®ŀçİ°": 4435,
      "è¿Ł": 4436,
      "éĻª": 4437,
      "çļĦæ½ľ": 4438,
      "40": 4439,
      "è·¯çº¿": 4440,
      "æ´ª": 4441,
      "éģİ": 4442,
      "æııç»ĺ": 4443,
      "æĽ´æľī": 4444,
      "èģļä¼ļ": 4445,
      "æĪĲä¸Ģä¸ª": 4446,
      "äºĴçĽ¸": 4447,
      "ä¸ĢåĢĭ": 4448,
      "é¸Łç±»": 4449,
      "çļĦçĪ±æĥħ": 4450,
      "æİĴåĪĹ": 4451,
      "èĴĻ": 4452,
      "åľ°çĲĥçļĦ": 4453,
      "æĮĤ": 4454,
      "ç¤¼çī©": 4455,
      "å°ıé¸Ł": 4456,
      "æĤī": 4457,
      "éģĵè·¯": 4458,
      "åĴĮè°Ĳ": 4459,
      "äºĮæ°§åĮĸç¢³": 4460,
      "çļĦæİĴ": 4461,
      "æ¡ĥ": 4462,
      "æĽ´æĸ°": 4463,
      "ä¿ĿéĻ©": 4464,
      "æľºåĪ¶": 4465,
      "è´¸": 4466,
      "åĢį": 4467,
      "åĪĹä¸¾": 4468,
      "åĭĴ": 4469,
      "ä½łä¼ļ": 4470,
      "å¯¹åħ¶": 4471,
      "ä»ĸæĥ³": 4472,
      "ä»ĭç»įä¸Ģä¸ĭ": 4473,
      "èĭ±æĸĩ": 4474,
      "çĻ½èī²": 4475,
      "äºĭä¸ļ": 4476,
      "çļĦä¸į": 4477,
      "åį«æĺŁ": 4478,
      "å®ĹæķĻ": 4479,
      "èĬĴ": 4480,
      "è¯»ä¹¦": 4481,
      "åķĨåºĹ": 4482,
      "ä¿ĿæĮģåģ¥åº·": 4483,
      "ä¸ľäº¬": 4484,
      "è¯·çĶ¨": 4485,
      "ä»¿ä½Ľ": 4486,
      "èĥ½åĬĽåĴĮ": 4487,
      "æł¹æį®è¾ĵåħ¥": 4488,
      "æģ¢å¤į": 4489,
      "åĪĢ": 4490,
      "çİĩåĴĮ": 4491,
      "çº½çº¦å¸Ĥ": 4492,
      "ä¸Ģå¼ł": 4493,
      "æ·ĩ": 4494,
      "ä¸ĢçĽ´åľ¨": 4495,
      "\"ï¼Į": 4496,
      "è®©äººä»¬": 4497,
      "èĻļæĭŁçİ°å®ŀ": 4498,
      "çļĦæŁ": 4499,
      "éĿ¢æĸĻ": 4500,
      "çļĦé«ĺ": 4501,
      "çļĦæŃ¥": 4502,
      "çļĦå¤ĸ": 4503,
      "åĽ¾ä¹¦é¦Ĩ": 4504,
      "å°½åĬĽ": 4505,
      "åĲĮäºĭ": 4506,
      "çŃĶæ¡Īæĺ¯": 4507,
      "èĥ¸": 4508,
      "ä¼¤å®³": 4509,
      "é¢ĨåŁŁä¸Ń": 4510,
      "è¿Ĳè¡Į": 4511,
      "ç§įæ¤į": 4512,
      "æĻ®éģį": 4513,
      "å°ıæľĭåıĭ": 4514,
      "å¦Īå¦Ī": 4515,
      "æłĩå¿Ĺ": 4516,
      "æĬĵ": 4517,
      "éªĮè¯ģ": 4518,
      "è¯´è¯Ŀ": 4519,
      "çĭĤ": 4520,
      "åĵªç§į": 4521,
      "ä»İä»¥ä¸ĭ": 4522,
      "èĢĢ": 4523,
      "åıĭå¥½": 4524,
      "å£¤": 4525,
      "æľºåĻ¨åŃ¦ä¹łç®Ĺæ³ķ": 4526,
      "ä»ĸä»¬åľ¨": 4527,
      "å¾Īå¥½çļĦ": 4528,
      "çļĦåħ³ç³»": 4529,
      "æĪĳéĿŀå¸¸": 4530,
      "çĬ¹": 4531,
      "æĺ¯å¤ļå°ĳ": 4532,
      "åħīçº¿": 4533,
      "åĨ°æ·ĩ": 4534,
      "åĪ«äºº": 4535,
      "éĺĲ": 4536,
      "åĬĽåŃ¦": 4537,
      "å°ıæĺİå®¶": 4538,
      "äººå·¥æĻºèĥ½çļĦåıĳå±ķ": 4539,
      "çĶ·æĢ§": 4540,
      "æĻºèĥ½åĮĸ": 4541,
      "åľ°éľĩ": 4542,
      "åĪĽä¸ļ": 4543,
      "å°±åĥı": 4544,
      "ä¸¦": 4545,
      "åĨ°æ·ĩæ·ĭ": 4546,
      "ä¼ĺæĥł": 4547,
      "æ¯ĶèµĽä¸Ń": 4548,
      "ç¾¤ä½ĵ": 4549,
      "Tom": 4550,
      "æĺ¯ä¸į": 4551,
      "åıªè¦ģ": 4552,
      "æĸ°éĹ»æĸĩç«ł": 4553,
      "çļĦæľºä¼ļ": 4554,
      "èĥľåĪ©": 4555,
      "åħļ": 4556,
      "æħ¢æħ¢": 4557,
      "ä¾ĽåºĶ": 4558,
      "ä¸²": 4559,
      "ä½¿çĶ¨çļĦ": 4560,
      "åħ¬ä¼Ĺ": 4561,
      "çĥŃæĥħ": 4562,
      "çĶŁæĪĲæĳĺè¦ģ": 4563,
      "æ¦Ĥè¿°": 4564,
      "æĽ´é«ĺ": 4565,
      "å¼ķåĬĽ": 4566,
      "åĬłéĢŁ": 4567,
      "ä¸§": 4568,
      "æ¢¦æĥ³": 4569,
      "åįľ": 4570,
      "æĺ¯åĽłä¸º": 4571,
      "åĴĮæľĭåıĭ": 4572,
      "åĪĩæĪĲ": 4573,
      "ï¼ļ\"": 4574,
      "å®¿": 4575,
      "æĮĩçļĦæĺ¯": 4576,
      "åĪ·": 4577,
      "å®Įç¾İ": 4578,
      "å°ĺ": 4579,
      "æĺ¯å¦Ĥä½ķ": 4580,
      "æ³Ĭ": 4581,
      "å¼Ĺ": 4582,
      "è°ĥèĬĤ": 4583,
      "é£ŀæľº": 4584,
      "è®²è¿°äºĨä¸Ģä¸ª": 4585,
      "çļĦæ¯ı": 4586,
      "åĭ¤": 4587,
      "å«Į": 4588,
      "æľĢåĸľæ¬¢çļĦ": 4589,
      "åľ¨è¿ĻéĩĮ": 4590,
      "è¿Ļåıª": 4591,
      "åħ¶å®ŀ": 4592,
      "çļĦçĻ": 4593,
      "æĿĥåĪ©": 4594,
      "ä¸Ĭæĸĩ": 4595,
      "ç¨®": 4596,
      "çĽĹ": 4597,
      "çŁĽçĽ¾": 4598,
      "è¯ķè¯ķ": 4599,
      "çļĦè¯ĹæŃĮ": 4600,
      "ä¾§": 4601,
      "èº«ä½ĵåĴĮ": 4602,
      "ä¿¡ä»°": 4603,
      "çĽ®çļĦæĺ¯": 4604,
      "çļĦæ£": 4605,
      "è¿Ļæĺ¯ä¸Ģç¯ĩ": 4606,
      "24": 4607,
      "æī©å¤§": 4608,
      "çļĦç¼ĸ": 4609,
      "å¯¸": 4610,
      "ç®Ģä»ĭ": 4611,
      "ãĢĤ'": 4612,
      "æĿİåįİ": 4613,
      "åĴĮå·¥ä½ľ": 4614,
      "åĬĽäºİ": 4615,
      "æı´": 4616,
      "å¹¶å°Ĩåħ¶": 4617,
      "å§ĵåĲį": 4618,
      "æ¶Ĥ": 4619,
      "å°ĳå¹´": 4620,
      "è¿Ļå°Ĩ": 4621,
      "ä¸Ģçīĩ": 4622,
      "å¹¶å°Ĩ": 4623,
      "å¦Ĥæŀľä½łæĥ³": 4624,
      "ä¸įæĸŃåıĳå±ķ": 4625,
      "å¹¿æ³ĽåºĶçĶ¨": 4626,
      "éĩĩåıĸè¡ĮåĬ¨": 4627,
      "è¿Ļæł·çļĦ": 4628,
      "çļĦçľ¼": 4629,
      "14": 4630,
      "çļĦä½įç½®": 4631,
      "å®¶åħ·": 4632,
      "è¯ĨåĪ«åĩº": 4633,
      "çļĦè´¨éĩı": 4634,
      "ä½łå¯¹": 4635,
      "æĦıå¤§åĪ©éĿ¢": 4636,
      "é¬": 4637,
      "æ®ĭ": 4638,
      "è½¨": 4639,
      "æĵİ": 4640,
      "å¤©çĦ¶": 4641,
      "ä¸įéľĢè¦ģ": 4642,
      "å¥Ķ": 4643,
      "åĲįè¯įçŁŃè¯Ń": 4644,
      "æīĭæľ¯": 4645,
      "æľĢæĸ°çļĦ": 4646,
      "äº¤éĢļå·¥åħ·": 4647,
      "çĤ¹ç¬¦åı·": 4648,
      "æĹģ": 4649,
      "å¯Įæľī": 4650,
      "è¿Ļæ®µæĸĩåŃĹ": 4651,
      "åĴĮå¹³": 4652,
      "å¹¶ä¸įæĺ¯": 4653,
      "åıĸä»£": 4654,
      "çīĽèĤī": 4655,
      "æĥħæĦŁåĪĨç±»": 4656,
      "ãĢĮ": 4657,
      "ä»¥ä¸ĭéĹ®é¢ĺ": 4658,
      "ä¿®æŃ£": 4659,
      "å®Ŀå®Ŀ": 4660,
      "åİŁåĪĻ": 4661,
      "æī£": 4662,
      "æĶ¾å¼ĥ": 4663,
      "æ·±åĳ¼åĲ¸": 4664,
      "æĺ¯æĪĳä»¬": 4665,
      "è´«": 4666,
      "å¯¹è±¡": 4667,
      "é»ĳæļĹ": 4668,
      "è§ĦèĮĥ": 4669,
      "æ¯«": 4670,
      "è¿ĺèĥ½": 4671,
      "NA": 4672,
      "ãĢį": 4673,
      "å°½å¿«": 4674,
      "å¹¶ç»Ļåĩº": 4675,
      "æĶ¹ä¸º": 4676,
      "li": 4677,
      "è½¬æį¢ä¸º": 4678,
      "èĺ": 4679,
      "ä½łæľīä»Ģä¹Ī": 4680,
      "æıĲä¾ĽçļĦ": 4681,
      "å¯¿åĳ½": 4682,
      "åı£è¯Ń": 4683,
      "åħĶåŃĲ": 4684,
      "æĢİä¹Īæł·": 4685,
      "æĪĳå°Ĩ": 4686,
      "åıĳåĩº": 4687,
      "åºĦ": 4688,
      "åĩĨç¡®æĢ§": 4689,
      "çļĦæ°´æŀľ": 4690,
      "æĽ´å¥½åľ°çĲĨè§£": 4691,
      "å¯Ĥ": 4692,
      "ä¹Į": 4693,
      "ä¹Łå°±æĺ¯": 4694,
      "æĺ¯ä¸ª": 4695,
      "éħª": 4696,
      "æ¶ĪèĢĹ": 4697,
      "æĤ¨å¥½": 4698,
      "Ġ5": 4699,
      "æİ¥çĿĢ": 4700,
      "ä¸ĢåĪĩ": 4701,
      "çĥ¦": 4702,
      "æĹ¥å¸¸çĶŁæ´»": 4703,
      "åľºåĲĪ": 4704,
      "æĿ¥æıĲé«ĺ": 4705,
      "åģıå¥½": 4706,
      "åľ¨æŃ¤": 4707,
      "ç¥ŀç§ĺçļĦ": 4708,
      "å½ĵä»Ĭ": 4709,
      "ä¸¥æł¼": 4710,
      "å¼ķæĵİ": 4711,
      "æ¸ħåįķ": 4712,
      "ç¬¬äºĮä¸ª": 4713,
      "ç±»åŀĭçļĦ": 4714,
      "åĽ½åĨħ": 4715,
      "ä¸īç§į": 4716,
      "åĮºåĪ«": 4717,
      "ï¼ļ'": 4718,
      "æł¹æį®æīĢ": 4719,
      "å¼ºå¤§": 4720,
      "ç½ļ": 4721,
      "è¯·å¯¹": 4722,
      "çĮª": 4723,
      "æĿ¥çľĭ": 4724,
      "æııè¿°ä¸Ģä¸ĭ": 4725,
      "èĬĤå¥ı": 4726,
      "çīĪæľ¬": 4727,
      "æİ¨èįĲä¸ĢäºĽ": 4728,
      "ä¼¸": 4729,
      "åİĤ": 4730,
      "çŃīæĸ¹å¼ı": 4731,
      "åİĭåĬĽåĴĮ": 4732,
      "è´¹çĶ¨": 4733,
      "çĩĥæĸĻ": 4734,
      "æıĴ": 4735,
      "åĴĮåĪĨæŀĲ": 4736,
      "æµ¸": 4737,
      "æĪ·å¤ĸæ´»åĬ¨": 4738,
      "ä¼łéĢĴ": 4739,
      "å°¼åħĭ": 4740,
      "æĦŁåĴĮ": 4741,
      "åĲ¬åĪ°": 4742,
      "å¯¹æīĭ": 4743,
      "è¿Ļä½į": 4744,
      "èį¡": 4745,
      "çļĦæĢģåº¦": 4746,
      "åĲİçļĦ": 4747,
      "æĬµ": 4748,
      "çĶµåĬ¨": 4749,
      "èĬ±è´¹": 4750,
      "æĢģåº¦": 4751,
      "åıĺéĿ©": 4752,
      "å°¤åħ¶æĺ¯": 4753,
      "è¦ģæ³¨æĦı": 4754,
      "åŃĶ": 4755,
      "å£ģ": 4756,
      "å¹¿æ³ĽçļĦåºĶçĶ¨": 4757,
      "èĬ¬": 4758,
      "å¤±åİ»": 4759,
      "æ¨¡ä»¿": 4760,
      "è¯ĦåĪĨ": 4761,
      "çļĦåŃ¦ä¹ł": 4762,
      "åĽĽä¸ª": 4763,
      "åı¯èĥ½æĢ§": 4764,
      "æĸ°äº§åĵģ": 4765,
      "åģ·": 4766,
      "åı«åģļ": 4767,
      "é«Ķ": 4768,
      "åı¯ä»¥æĺ¯": 4769,
      "è¾ŀ": 4770,
      "æ»¤": 4771,
      "å¥½äºĨ": 4772,
      "åĮĸåĲĪçī©": 4773,
      "äºİæĺ¯": 4774,
      "ä¸ĢçĤ¹": 4775,
      "è´¯": 4776,
      "çľ¼çĿĽ": 4777,
      "13": 4778,
      "éĻ¤æŃ¤": 4779,
      "ç¢Ĺ": 4780,
      "éĶĢåĶ®é¢Ŀ": 4781,
      "æŀĦæĪĲ": 4782,
      "åİ¿": 4783,
      "å°Ĩä¸ĭéĿ¢": 4784,
      "æľīæĹ¶": 4785,
      "åĲĪåĲĮ": 4786,
      "åłµ": 4787,
      "é³": 4788,
      "äººå·¥æĻºèĥ½çļĦåºĶçĶ¨": 4789,
      "æľºåĻ¨ç¿»è¯ĳ": 4790,
      "èĪĩ": 4791,
      "æ°´åĴĮ": 4792,
      "éļıæľº": 4793,
      "é¦Ļæ¸¯": 4794,
      "é©±": 4795,
      "çļĦæĸĩåĮĸ": 4796,
      "åĶ¯ä¸Ģ": 4797,
      "åľŁå£¤": 4798,
      "æ°´ä¸Ń": 4799,
      "èĩ´åĬĽäºİ": 4800,
      "åıĳå±ķçļĦ": 4801,
      "ä¸ºä¸Ģä¸ª": 4802,
      "é¦¨": 4803,
      "ä¿¡åı·": 4804,
      "å¥¥è¿Ĳ": 4805,
      "æ¯ıæ¬¡": 4806,
      "è¯Ńæ³ķåĴĮ": 4807,
      "åĢ¾åĲĳ": 4808,
      "æĺ¯ä¸Ģé¡¹": 4809,
      "æĻ¯è§Ĥ": 4810,
      "éĤĢè¯·": 4811,
      "å®ģéĿĻ": 4812,
      "éľĢè¦ģæ³¨æĦıçļĦæĺ¯": 4813,
      "å¿ĥçģµ": 4814,
      "çļĦç¾İå¥½": 4815,
      "æĺĵäºİçĲĨè§£": 4816,
      "æĸĩä¸Ń": 4817,
      "ç»ĻæĪĳä¸Ģä¸ª": 4818,
      "å¯¹æĸĩæľ¬": 4819,
      "èĭ±éĽĦ": 4820,
      "æķ´ä½ĵ": 4821,
      "éĩįåĨĻä»¥ä¸ĭåı¥åŃĲ": 4822,
      "éĻ¤æŃ¤ä¹ĭå¤ĸ": 4823,
      "æĵħ": 4824,
      "è±¡å¾ģ": 4825,
      "èģĶåĲĪ": 4826,
      "åĴĮæķ°æį®": 4827,
      "yt": 4828,
      "æĮĳ": 4829,
      "å®ĮåĸĦ": 4830,
      "æĢİä¹ĪåĬŀ": 4831,
      "éĿŀå¸¸æľī": 4832,
      "æ¨¡æĭŁäººç±»": 4833,
      "å¦¹": 4834,
      "æĪĲç«ĭ": 4835,
      "çİ°åľ¨è¯·ä½ł": 4836,
      "èµĦæĸĻ": 4837,
      "èµĭ": 4838,
      "åı¦ä¸Ģ": 4839,
      "è®¯": 4840,
      "ãĢĤãĢĬ": 4841,
      "è¿ĻäºĽéĹ®é¢ĺ": 4842,
      "å¤±è´¥": 4843,
      "è¿Ļåº§": 4844,
      "å¾Īéļ¾": 4845,
      "æĮĸ": 4846,
      "çļĦæµģ": 4847,
      "èħ»": 4848,
      "éĸĭ": 4849,
      "å¸¦æĿ¥çļĦ": 4850,
      "å¾·åĽ½": 4851,
      "åĴĮé«ĺ": 4852,
      "ç»Ĵ": 4853,
      "æ¤ħ": 4854,
      "å¸Ń": 4855,
      "åĴĮæĬĢæľ¯": 4856,
      "é¢Ħè®¡": 4857,
      "é½Ĳ": 4858,
      "èĬĤçĽ®": 4859,
      "åĮĹæŀģ": 4860,
      "æĩī": 4861,
      "å¸½": 4862,
      "çģ«æĺŁ": 4863,
      "å½ĵä½ł": 4864,
      "ä¸¾åĬŀ": 4865,
      "æľīäºº": 4866,
      "å®īè£ħ": 4867,
      "çļĦæ¨¡": 4868,
      "å¸®æĪĳæĥ³": 4869,
      "çļĦæĹ¥": 4870,
      "çļĦç¨ĭ": 4871,
      "çĻĮçĹĩ": 4872,
      "åı¯èĥ½ä¼ļå¯¼èĩ´": 4873,
      "æ¼Ķè®²": 4874,
      "åıįæĺł": 4875,
      "ä¸¹": 4876,
      "å¾Ģå¾Ģ": 4877,
      "å¤©ä½ĵ": 4878,
      "æ´ĭèĳ±": 4879,
      "è¹Ī": 4880,
      "ç¤¾ä¼ļçļĦ": 4881,
      "éĸĵ": 4882,
      "è¯¥æĸĩç«ł": 4883,
      "èµĦéĩĳ": 4884,
      "ä¾¿æį·": 4885,
      "çļĦæĥħèĬĤ": 4886,
      "çļĦæĦŁåıĹ": 4887,
      "è¯·ç»ŃåĨĻ": 4888,
      "ä¼ļå¯¹": 4889,
      "çļĦæĬĢå·§": 4890,
      "å¹³æĸ¹": 4891,
      "éŁµ": 4892,
      "æĴŀ": 4893,
      "è¡¬": 4894,
      "æīĢè¿°": 4895,
      "çī¹åĪ«æĺ¯": 4896,
      "ython": 4897,
      "æ¯ıå¹´": 4898,
      "äººå¿ĥ": 4899,
      "ä¸Ńç«ĭ": 4900,
      "ç²¾åĩĨ": 4901,
      "è¦ĨçĽĸ": 4902,
      "ç£ģ": 4903,
      "Ŀåįľ": 4904,
      "ä¸Ĭæľī": 4905,
      "å¹¶è¿Ľè¡Į": 4906,
      "çļĦè¿ĩç¨ĭä¸Ń": 4907,
      "æĭ¼åĨĻéĶĻè¯¯": 4908,
      "æľĪçĲĥ": 4909,
      "æ¼ł": 4910,
      "åı¯ä»¥å°Ŀè¯ķ": 4911,
      "ä¼Ļä¼´": 4912,
      "åħĪè¿Ľ": 4913,
      "è¿ĺæľīåħ¶ä»ĸ": 4914,
      "éĢļå¸¸æĺ¯": 4915,
      "æľīæľº": 4916,
      "äºĨä»Ģä¹Ī": 4917,
      "çĪ¸": 4918,
      "æ¯ıäºº": 4919,
      "æĴĴ": 4920,
      "çļĦæĶ¹": 4921,
      "åº¦çļĦ": 4922,
      "åŃ¦æľ¯": 4923,
      "å®ļåĪ¶": 4924,
      "æłĩè®°": 4925,
      "ç»ĻæĪĳä¸ĢäºĽ": 4926,
      "åĩĿ": 4927,
      "åħ±äº«": 4928,
      "è¿Ļéģĵ": 4929,
      "åĩºçĶŁ": 4930,
      "ç»ĻäºĪ": 4931,
      "åı¯ä»¥å¸®åĬ©æĪĳä»¬": 4932,
      "åªļ": 4933,
      "éĿŀæ³ķ": 4934,
      "è¿Ļåľº": 4935,
      "åĿĩè¡¡": 4936,
      "Python": 4937,
      "èĿ¶": 4938,
      "éŃħåĬĽ": 4939,
      "ç§ĳæĬĢçļĦ": 4940,
      "äººå·¥æĻºèĥ½åı¯ä»¥": 4941,
      "åħ¬å¹³": 4942,
      "èķ´": 4943,
      "çªģåĩº": 4944,
      "çļĦæĳĦåħ¥": 4945,
      "ä¼ļåľ¨": 4946,
      "åģ¶": 4947,
      "éĻ¤æ³ķ": 4948,
      "ç¶ĵ": 4949,
      "éĹľ": 4950,
      "æĸĩç«łåĨħå®¹": 4951,
      "äººå·¥æĻºèĥ½åľ¨åĮ»çĸĹé¢ĨåŁŁ": 4952,
      "éĿŀæ´²": 4953,
      "è¡¨çİ°åĩº": 4954,
      "ä¸Ńå¤®": 4955,
      "æ»´": 4956,
      "æĪĳå·²ç»ı": 4957,
      "çļĦæķĪæŀľ": 4958,
      "ç¾½": 4959,
      "ç½ĳä¸Ĭ": 4960,
      "åĴĮæĥħæĦŁ": 4961,
      "åĩ¯": 4962,
      "å°ıçİĭ": 4963,
      "æļĤ": 4964,
      "æĭĤ": 4965,
      "å¤ĸå¥Ĺ": 4966,
      "æīĭè¡¨": 4967,
      "åıĹæ¬¢è¿İçļĦ": 4968,
      "å¼ķäºº": 4969,
      "ä¼łç»ŁçļĦ": 4970,
      "å°ıçļĦ": 4971,
      "è¯·åĽŀçŃĶ": 4972,
      "ç»Īäºİ": 4973,
      "è¯·ç»ŃåĨĻä»ĸä»¬çļĦå¯¹è¯ĿåĨħå®¹": 4974,
      "åĪłéĻ¤": 4975,
      "ç¼ĺ": 4976,
      "åĩłå¹´": 4977,
      "æĺ¯äººç±»": 4978,
      "çļĦä»·æł¼": 4979,
      "çļĦç¤¾äº¤": 4980,
      "æĪĳå¸ĮæľĽ": 4981,
      "ä¿ĿçķĻ": 4982,
      "çĲĥåĳĺ": 4983,
      "èįĴ": 4984,
      "æĪĳå¯¹": 4985,
      "æııè¿°ä¸Ģä¸ª": 4986,
      "éļľç¢į": 4987,
      "çļĦæ¸ħ": 4988,
      "åģ¥åº·åĴĮ": 4989,
      "çļĦé¦ĸ": 4990,
      "çļĦæ¢¦æĥ³": 4991,
      "è¿ĶåĽŀ": 4992,
      "å¸Ĥä¸Ńå¿ĥ": 4993,
      "çģ«è½¦": 4994,
      "èĪŀè¹Ī": 4995,
      "ç»ĻæĤ¨": 4996,
      "è¡ĵ": 4997,
      "çļĦä¹¦": 4998,
      "ä¸įåĪ°": 4999,
      "å¤ıæĹ¥": 5000,
      "æ¶Īæģ¯": 5001,
      "çİ¯ä¿ĿæĦıè¯Ĩ": 5002,
      "éĢĹ": 5003,
      "å±±èĦī": 5004,
      "ç©·": 5005,
      "éĥ½èĥ½": 5006,
      "AIè¯Ńè¨Ģæ¨¡åŀĭ": 5007,
      "æĪĳè¦ģ": 5008,
      "è¿Ļä¹Ī": 5009,
      "æĽ´å¥½åľ°äºĨè§£": 5010,
      "çĮ«åĴª": 5011,
      "éĩįéĩı": 5012,
      "å¿łè¯ļ": 5013,
      "GPTæ¨¡åŀĭ": 5014,
      "æĪĳåĢĳ": 5015,
      "ç½©": 5016,
      "å¤ªç©ºæİ¢ç´¢": 5017,
      "éģĹäº§": 5018,
      "åįķä½į": 5019,
      "ä¸¤ä¸ªäºº": 5020,
      "æ³¨æĦıåĬĽ": 5021,
      "åİ»å¹´": 5022,
      "ä¸įå¥½": 5023,
      "åĪĨæĶ¯": 5024,
      "èıĩ": 5025,
      "æľºéģĩ": 5026,
      "çĥŃéĹ¨": 5027,
      "æ¼ı": 5028,
      "æĿĲè´¨": 5029,
      "ä¹Łåľ¨": 5030,
      "åĲ¸æĶ¶": 5031,
      "è°¨": 5032,
      "éĢıæĺİ": 5033,
      "åİŁå§ĭæĸĩæľ¬": 5034,
      "æµĭéĩı": 5035,
      "è´¸æĺĵ": 5036,
      "æĬķåħ¥": 5037,
      "é¥®é£Łä¹łæĥ¯": 5038,
      "å®¶æĹı": 5039,
      "æĢĸ": 5040,
      "çļĦçĬ¶": 5041,
      "æľįè£ħ": 5042,
      "éĶģ": 5043,
      "å¾ĭå¸Ī": 5044,
      "èŀįåĲĪ": 5045,
      "æĺ¯éĢļè¿ĩ": 5046,
      "çļĦå¥½å¤Ħ": 5047,
      "è¿Ļæĺ¯åĽłä¸º": 5048,
      "ä¸įåĨį": 5049,
      "åŃ©åŃĲä»¬": 5050,
      "è¯ĬæĸŃåĴĮæ²»çĸĹ": 5051,
      "æĸĩä»¶": 5052,
      "å¿ĥçĲĨåŃ¦": 5053,
      "æīĵéĢł": 5054,
      "å½¢çļĦ": 5055,
      "éĩĳå±ŀ": 5056,
      "äºļæ´²": 5057,
      "æľīéĻĲ": 5058,
      "æĶ¾æĿ¾èº«å¿ĥ": 5059,
      "ä½Ĩå®ĥ": 5060,
      "åĴĮå»ºè®®": 5061,
      "æµħ": 5062,
      "åıĮæĸ¹": 5063,
      "é¢Ī": 5064,
      "çĽ¸æ¯Ķ": 5065,
      "æľīäºĽäºº": 5066,
      "çľŁæĺ¯": 5067,
      "ä»¥æıĲé«ĺ": 5068,
      "è£Ĥ": 5069,
      "çļĦè¯Ŀé¢ĺ": 5070,
      "èĥ½å¤Łå¸®åĬ©": 5071,
      "æĦıè§ģ": 5072,
      "ä»¥ä¸ĭæĸĩç«ł": 5073,
      "æ½®æµģ": 5074,
      "åĪ¶åĵģ": 5075,
      "åĲĪå¹¶": 5076,
      "è¼": 5077,
      "ç¨į": 5078,
      "æıĲä¾ĽæĽ´": 5079,
      "å®īéĿĻ": 5080,
      "çº¢èī²çļĦ": 5081,
      "ç¨¿": 5082,
      "æ¯Ķåĸ»": 5083,
      "èĥ½ä¸įèĥ½": 5084,
      "ä¸įä»ħä»ħ": 5085,
      "ä»ģ": 5086,
      "çļĦç¾İä¸½": 5087,
      "å¹¶è§£éĩĬ": 5088,
      "æħİ": 5089,
      "ä¸Ģéģĵ": 5090,
      "å¤©æ°Ķé¢ĦæĬ¥": 5091,
      "90": 5092,
      "çĶ»éĿ¢": 5093,
      "æľĢå¤ļ": 5094,
      "èĦĨ": 5095,
      "åıįä¹īè¯į": 5096,
      "éĵº": 5097,
      "å¨ľ": 5098,
      "åĹ¯": 5099,
      "éĿ¢è¯ķ": 5100,
      "ç©¿è¶Ĭ": 5101,
      "å¤§åľ°": 5102,
      "æĸ¯åĿ¦": 5103,
      "Ġäººå·¥æĻºèĥ½": 5104,
      "æľ¬èº«": 5105,
      "åį¢": 5106,
      "æł¸å¿ĥ": 5107,
      "åĽŀåĪ°": 5108,
      "æİ¥è§¦": 5109,
      "èī³": 5110,
      "åĪ©æ¶¦": 5111,
      "çħİ": 5112,
      "åľĭ": 5113,
      "æķ°ä¸º": 5114,
      "éī": 5115,
      "å®ŀéĻħä¸Ĭ": 5116,
      "ä¸īè§Ĵ": 5117,
      "çĪ±çļĦ": 5118,
      "çĥŃéĩı": 5119,
      "ä¹Ĳè¶£": 5120,
      "é¹ħ": 5121,
      "éĺĲè¿°": 5122,
      "æĺ¯ç¾İåĽ½": 5123,
      "åħ¨åĽ½": 5124,
      "åĩĨç¡®çļĦ": 5125,
      "åĨłåĨĽ": 5126,
      "èīºæľ¯å®¶": 5127,
      "å°Ĭæķ¬çļĦ": 5128,
      "åľ°ä½į": 5129,
      "or": 5130,
      "çĶŁåĬ¨": 5131,
      "åįıä½ľ": 5132,
      "åİĨåı²ä¸Ĭ": 5133,
      "èµ·æºĲ": 5134,
      "ãĢĤâĢľ": 5135,
      "æĿ¥çļĦ": 5136,
      "å°¼äºļ": 5137,
      "åĨ²çªģ": 5138,
      "çİ»": 5139,
      "æ¶¯": 5140,
      "åįĹæŀģ": 5141,
      "æķ°æį®çļĦ": 5142,
      "ç²¾å½©": 5143,
      "èĩªçĦ¶çİ¯å¢ĥ": 5144,
      "éĿ©åĳ½": 5145,
      "éħįæĸĻ": 5146,
      "éªĳèĩªè¡Įè½¦": 5147,
      "çĶ³è¯·": 5148,
      "å¿ĥä¸Ń": 5149,
      "çī¹æĢ§": 5150,
      "çŃīæĬĢæľ¯": 5151,
      "éļ¾å¿ĺ": 5152,
      "æĸĩæ¡ĪçĶŁæĪĲ": 5153,
      "æ¬º": 5154,
      "è¯Ńä¹ī": 5155,
      "å¸¦æľī": 5156,
      "ä¸Ģå®ļçļĦ": 5157,
      "è½¬åĮĸä¸º": 5158,
      "æĿ¥å¸®åĬ©": 5159,
      "æ³ī": 5160,
      "è¡¨æł¼": 5161,
      "å¾ĪæĬ±æŃī": 5162,
      "çļĦæķĻèĤ²": 5163,
      "ä½ĵç³»": 5164,
      "å½ĵåľ°çļĦ": 5165,
      "æīĵç®Ĺ": 5166,
      "å¼Ģå±ķ": 5167,
      "å°ıåŀĭ": 5168,
      "åħ¬å¼ı": 5169,
      "ä½©": 5170,
      "æĹħç¨ĭ": 5171,
      "æ°ĳæĹı": 5172,
      "è¿Ļè¡¨æĺİ": 5173,
      "çļĦæĬķèµĦ": 5174,
      "æĹ¥å¸¸çĶŁæ´»ä¸Ń": 5175,
      "é¢Ħè®¢": 5176,
      "æĪĳæİ¨èįĲ": 5177,
      "æľīä»»ä½ķ": 5178,
      "åįĩé«ĺ": 5179,
      "ä»Ĭå¤©å¤©æ°Ķ": 5180,
      "çĸ²åĬ³": 5181,
      "åłĨ": 5182,
      "è°ľ": 5183,
      "å¾Īä¸įéĶĻ": 5184,
      "åīįæıĲ": 5185,
      "èĩªåĬ¨é©¾é©¶æ±½è½¦": 5186,
      "åľŁåľ°": 5187,
      "åĴĮäººç±»": 5188,
      "ç´§æĢ¥": 5189,
      "çĳ°": 5190,
      "æŃ¥è¡Į": 5191,
      "åľ¨æĪĳ": 5192,
      "åį³å°Ĩ": 5193,
      "å¼Ĥå¸¸": 5194,
      "éī´": 5195,
      "æĴĳ": 5196,
      "åħ¨çĲĥèĮĥåĽ´åĨħ": 5197,
      "äººéĻħ": 5198,
      "çĴĥ": 5199,
      "æľªæĿ¥åıĳå±ķ": 5200,
      "åĴĮæĹ¶éĹ´": 5201,
      "å¤¹": 5202,
      "2022": 5203,
      "æĪĳæŃ£åľ¨": 5204,
      "çº¦ä¸º": 5205,
      "åİŁåı¥": 5206,
      "ä¸Ģåı¥": 5207,
      "å¾Īæ£Ĵ": 5208,
      "èĬĤèĥ½": 5209,
      "å¯ĮåĲ«": 5210,
      "çĮľ": 5211,
      "åĽŀå¤į": 5212,
      "ä¼ļæľī": 5213,
      "éĻ¶": 5214,
      "æľĢéĩįè¦ģçļĦ": 5215,
      "è¡Ģåİĭ": 5216,
      "åĮĸçŁ³": 5217,
      "äº«çĶ¨": 5218,
      "èº«è¾¹": 5219,
      "ä¾£": 5220,
      "èµİ": 5221,
      "æĪĲåĬŁåľ°": 5222,
      "çļĦåħ³éĶ®è¯į": 5223,
      "çģµæĦŁ": 5224,
      "ä¸įå¾Ĺ": 5225,
      "åı¯ä»¥å¾ĹåĪ°": 5226,
      "æ¢°": 5227,
      "æħĪ": 5228,
      "è¡Ģç®¡": 5229,
      "ç®ĢçŁŃçļĦ": 5230,
      "ä»¥å¸®åĬ©": 5231,
      "æ¡Īä»¶": 5232,
      "åĽŀå½Ĵ": 5233,
      "ç©ĨæľĹ": 5234,
      "ä¼ĺç§ĢçļĦ": 5235,
      "çĽ¸åºĶçļĦ": 5236,
      "æľįåĬ¡åĳĺ": 5237,
      "ä»£æĽ¿": 5238,
      "æĺİåªļ": 5239,
      "æĪĳå»ºè®®": 5240,
      "è¿Ĳè¾ĵ": 5241,
      "èµ¶": 5242,
      "åŁºäºİä»¥ä¸Ĭ": 5243,
      "ä½ĵçİ°": 5244,
      "éģ¥": 5245,
      "ç©ĨæľĹçİĽ": 5246,
      "æĵħéķ¿": 5247,
      "æ´»åĬĽ": 5248,
      "çº¢æ¥¼": 5249,
      "å¤§è±¡": 5250,
      "è¿Ļä»½": 5251,
      "åĩºåıĳ": 5252,
      "åĩºçİ°äºĨ": 5253,
      "é¼»": 5254,
      "ä¸ŃåĽ½çļĦ": 5255,
      "æĻ´æľĹ": 5256,
      "æĪĳä¸įèĥ½": 5257,
      "åŃĻ": 5258,
      "500": 5259,
      "åĸľæ¬¢çļĦ": 5260,
      "çļĦæ°ĽåĽ´": 5261,
      "å¦Ĩ": 5262,
      "å¾Īå¿«": 5263,
      "æĦĪ": 5264,
      "æ³°åĿ¦": 5265,
      "ç¤ºä¾ĭ": 5266,
      "åı¯è¡Į": 5267,
      "ä¸ªæľĪ": 5268,
      "å¤±æľĽ": 5269,
      "éĢļä¿¡": 5270,
      "æİ¥ç§į": 5271,
      "éĢłæĪĲäºĨ": 5272,
      "æľīå®³": 5273,
      "å®¾è¯Ń": 5274,
      "å¤§çĨĬçĮ«": 5275,
      "çļĦç´": 5276,
      "åı¯ä»¥å¸®åĬ©ä½ł": 5277,
      "ä¸įèµ·": 5278,
      "çĽ¸åħ³ä¿¡æģ¯": 5279,
      "åı¯ä»¥ä¸º": 5280,
      "é¢ĨåŁŁçļĦåºĶçĶ¨": 5281,
      "å¯ĴåĨ·": 5282,
      "è¿Ļä¹Ł": 5283,
      "æıĲåīį": 5284,
      "éģµå¾ª": 5285,
      "å¥¥è¿Ĳä¼ļ": 5286,
      "æķ°çĻ¾": 5287,
      "çĶµè§Ĩåī§": 5288,
      "åľ°åĽ¾": 5289,
      "æ©ĺ": 5290,
      "æ¯ģ": 5291,
      "éĻĮ": 5292,
      "ç©ĨæľĹçİĽå³°": 5293,
      "åįĵ": 5294,
      "ç²¾åĬĽ": 5295,
      "æŁĲç§į": 5296,
      "æļĹç¤º": 5297,
      "çļĦçĹħ": 5298,
      "è«": 5299,
      "çļĦæ¤": 5300,
      "åıĹä¼¤": 5301,
      "åĴĮåģ¥åº·": 5302,
      "æĪĳä»¬å¿ħé¡»": 5303,
      "åĲĪæ³ķ": 5304,
      "åı¯èĥ½çļĦ": 5305,
      "åŃ¦ä¹łç¼ĸç¨ĭ": 5306,
      "å°¼åħĭåı·": 5307,
      "å¿ĺè®°": 5308,
      "ä¹ŁéĿŀå¸¸": 5309,
      "çĽĪ": 5310,
      "æķ°åŃĹåĮĸ": 5311,
      "æī«": 5312,
      "çļĦçģµ": 5313,
      "éķ¿åŁİ": 5314,
      "è´¾": 5315,
      "ä¼Ĺå¤ļ": 5316,
      "è¯Ĺäºº": 5317,
      "æĻ®åıĬ": 5318,
      "åı¯èĥ½éľĢè¦ģ": 5319,
      "çļĦæĻ¯çĤ¹": 5320,
      "æ¸ħæ¥ļ": 5321,
      "åİ¨æĪ¿": 5322,
      "æĸĳ": 5323,
      "è¯·æ±Ĥ": 5324,
      "å°¿çĹħ": 5325,
      "æ¯ıåĳ¨": 5326,
      "çĥŃçĪ±": 5327,
      "åĪ¶æĪĲ": 5328,
      "è°·æŃĮ": 5329,
      "æĸĩæ¡£": 5330,
      "åĬŀåħ¬å®¤": 5331,
      "æĪĳè¿ĺ": 5332,
      "åŃ¦èĢħ": 5333,
      "å¤·": 5334,
      "åĮºåĿĹéĵ¾æĬĢæľ¯": 5335,
      "çļĦæĢ»ç»ĵ": 5336,
      "äºĭé¡¹": 5337,
      "æľºåľº": 5338,
      "åİĨç¨ĭ": 5339,
      "80": 5340,
      "çļĦåĲįåŃĹ": 5341,
      "åħģ": 5342,
      "çŃīåĽłç´ł": 5343,
      "çļĦæĶ¶": 5344,
      "åľ¨éĤ£éĩĮ": 5345,
      "å¼ºå¤§çļĦ": 5346,
      "æ°§æ°Ķ": 5347,
      "è°¢è°¢ä½ł": 5348,
      "å¾®é£İ": 5349,
      "ä»¥ä¸ĭæĺ¯ä¸ĢäºĽ": 5350,
      "æĮĩåįĹ": 5351,
      "æĪĳæĥ³è¦ģ": 5352,
      "æ³°åĿ¦å°¼åħĭåı·": 5353,
      "é¥¼å¹²": 5354,
      "å¤§è§Ħæ¨¡": 5355,
      "å§Ĳ": 5356,
      "çİ»çĴĥ": 5357,
      "è¾Ľ": 5358,
      "çļĦçŁŃæĸĩ": 5359,
      "æĺ¯è°ģ": 5360,
      "éĩİçĶŁåĬ¨çī©": 5361,
      "åľ¨è¿Ļä¸ªåı¥åŃĲä¸Ń": 5362,
      "çº¢æ¥¼æ¢¦": 5363,
      "çĶ¨åĵģ": 5364,
      "çĲĨå¿µ": 5365,
      "éĽ¾": 5366,
      "çļĦæŃ¥éª¤": 5367,
      "çļĦåĲĮæĹ¶": 5368,
      "éĩİé¤Ĳ": 5369,
      "çļĦæĢ§èĥ½": 5370,
      "æµ´": 5371,
      "è§£çŃĶ": 5372,
      "åĸ·": 5373,
      "æĳĦæ°ı": 5374,
      "éĹ®çŃĶ": 5375,
      "å¤ļåħĥ": 5376,
      "çıłç©ĨæľĹçİĽå³°": 5377,
      "çļĦæİ¢": 5378,
      "çĶ³åħĭ": 5379,
      "æĿ°åħĭ": 5380,
      "æ³½": 5381,
      "èĤĸçĶ³åħĭ": 5382,
      "èĢģé¼ł": 5383,
      "çļĦæķĳ": 5384,
      "ä¸Ģç¯ĩåħ³äºİ": 5385,
      "è¿ľç¨ĭ": 5386,
      "ä¸ŃçļĦåħ³éĶ®è¯į": 5387,
      "åį±å®³": 5388,
      "Ġ+": 5389,
      "ä½Ĩåľ¨": 5390,
      "æ¶ĪéĻ¤": 5391,
      "è¾£æ¤Ĵ": 5392,
      "çĶµåĻ¨": 5393,
      "å·¥ä½ľæķĪçİĩ": 5394,
      "æľīçĶ¨": 5395,
      "ç»ĦæĪĲéĥ¨åĪĨ": 5396,
      "åĩºéĹ¨": 5397,
      "å¯º": 5398,
      "ä¼ı": 5399,
      "åĪ¶åº¦": 5400,
      "çļĦçī¹å¾ģ": 5401,
      "å¤Ħäºİ": 5402,
      "æĿ¥åĪ°": 5403,
      "èĥ½å¤Łåľ¨": 5404,
      "çĶ·å£«": 5405,
      "æ³Ħ": 5406,
      "åĩºåİ»": 5407,
      "br": 5408,
      "åĲİæŀľ": 5409,
      "ä¼ŀ": 5410,
      "çĸ¼": 5411,
      "åī²": 5412,
      "ä»ĸåĢĳ": 5413,
      "æķĻåŃ¦": 5414,
      "ç³ĸå°¿çĹħ": 5415,
      "ä¹Ļ": 5416,
      "å®ļä½į": 5417,
      "èħ°": 5418,
      "åĴĮè¡Įä¸º": 5419,
      "ä¸ºä¸»": 5420,
      "æ¸©é¦¨": 5421,
      "æĮĸæİĺ": 5422,
      "æĪĳæĺ¨å¤©": 5423,
      "æµĵéĥģ": 5424,
      "çļĦä½ľçĶ¨": 5425,
      "å¯¼èĩ´äºĨ": 5426,
      "ç¾İåĳ³çļĦ": 5427,
      "å®ĥåľ¨": 5428,
      "æľŁæľĽ": 5429,
      "æĶ¹æŃ£": 5430,
      "ä¸įå°ĳ": 5431,
      "éľį": 5432,
      "¡èĲĿåįľ": 5433,
      "èĥ¡èĲĿåįľ": 5434,
      "è°¢è°¢ä½łçļĦ": 5435,
      "æľĢè¿ĳçļĦ": 5436,
      "å¤ķ": 5437,
      "ç³Ĭ": 5438,
      "æĺ¨æĻļ": 5439,
      "åįıè°ĥ": 5440,
      "å¾Īå¤§çļĦ": 5441,
      "ç²¾ç¡®": 5442,
      "çĲĥéĺŁ": 5443,
      "èĢĮä¸į": 5444,
      "ä¸Ģèµ·åİ»": 5445,
      "è¿ĩäºİ": 5446,
      "å°ıæĺİçļĦ": 5447,
      "æĦŁæ¿Ģ": 5448,
      "ç»¼ä¸Ĭ": 5449,
      "äº¦": 5450,
      "åĮ»çĸĹè¡Įä¸ļ": 5451,
      "æ¢¨": 5452,
      "éĿ¢ä¸Ĭ": 5453,
      "æ°ĽåĽ´": 5454,
      "å·²çŁ¥": 5455,
      "åı¤è¯Ĺç»ŃåĨĻ": 5456,
      "æ³¥": 5457,
      "è¿Ļä¸ªäºº": 5458,
      "çłĶç©¶äººåĳĺ": 5459,
      "é¥®çĶ¨": 5460,
      "å¤º": 5461,
      "æĹłè®ºæĺ¯": 5462,
      "åįıåĬ©": 5463,
      "çľŁæŃ£çļĦ": 5464,
      "çĥĤ": 5465,
      "æ¥Ń": 5466,
      "åĸľåī§": 5467,
      "ï¼ģâĢĿ": 5468,
      "æĭĸ": 5469,
      "çĽĨ": 5470,
      "åĨ¬å¤©": 5471,
      "æĺĨ": 5472,
      "æ¡Īä¾ĭ": 5473,
      "æĹ±": 5474,
      "å¹³åĿĩåĪĨç»Ļ": 5475,
      "çİ°åľº": 5476,
      "åĲģ": 5477,
      "ä¸ĬäºĨ": 5478,
      "ç§ĭåŃ£": 5479,
      "çĭ®åŃĲ": 5480,
      "æĻ¶": 5481,
      "è®ĵ": 5482,
      "è¿ĻäºĽä¿¡æģ¯": 5483,
      "æ¦Ħ": 5484,
      "è¯·ä¸º": 5485,
      "æĦŁçŁ¥": 5486,
      "æ¿Ģåıĳ": 5487,
      "å§ĭç»Ī": 5488,
      "åĩıç¼ĵ": 5489,
      "æĪĳä»Ĭå¤©": 5490,
      "è¶ħçº§": 5491,
      "åıł": 5492,
      "ç·": 5493,
      "èĩ³åħ³éĩįè¦ģ": 5494,
      "åĬ£": 5495,
      "çĶŁæ´»çļĦ": 5496,
      "åģļæ³ķ": 5497,
      "Ħæ¦Ħ": 5498,
      "çļĦåĬĽéĩı": 5499,
      "çİ¯å¢ĥéĹ®é¢ĺ": 5500,
      "éĢīæĭ©ä¸Ģä¸ª": 5501,
      "éĤ¦": 5502,
      "ä¼ĺåħĪ": 5503,
      "æĥ§": 5504,
      "çļĦå£°éŁ³": 5505,
      "é¥±": 5506,
      "éĢĹåı·": 5507,
      "çĲĨæĥ³": 5508,
      "åĪĽéĢłåĬĽ": 5509,
      "æĪĳåİ»": 5510,
      "é¹¿": 5511,
      "çļĦèĬ±": 5512,
      "å¼¦": 5513,
      "ä½ľä¸ļ": 5514,
      "æįŁå¤±": 5515,
      "åĩºä¸Ģä¸ª": 5516,
      "ä¿ĿæĬ¤æĪĳä»¬çļĦ": 5517,
      "æ§": 5518,
      "å·¥ä½ľåĴĮ": 5519,
      "ä¸ĵæ³¨äºİ": 5520,
      "âĦ": 5521,
      "æĸĩç«łä¸ŃæıĲåĪ°": 5522,
      "ä¸įå¤Ł": 5523,
      "æŁľ": 5524,
      "åıĻ": 5525,
      "ä¹°äºĨä¸Ģ": 5526,
      "åįİçĽĽ": 5527,
      "å¯ĵ": 5528,
      "æĥħå¢ĥ": 5529,
      "çī©èģĶç½ĳ": 5530,
      "å¥¶éħª": 5531,
      "æĿ¨": 5532,
      "åļ": 5533,
      "æ»ļ": 5534,
      "è®¾è®¡ä¸Ģä¸ª": 5535,
      "å®¶åĽŃ": 5536,
      "æī©å±ķ": 5537,
      "åı¤åħ¸": 5538,
      "è¿ĲåĬ¨åĳĺ": 5539,
      "åĬłçĥŃ": 5540,
      "åĩºèī²çļĦ": 5541,
      "ä¹ĭæĹħ": 5542,
      "ä¸įèī¯": 5543,
      "æĶĢ": 5544,
      "åıĹåĪ°äºĨ": 5545,
      "æĻļé¤Ĳ": 5546,
      "éĢļè¿ĩå¯¹": 5547,
      "âĢ¦âĢ¦": 5548,
      "èģĮåľº": 5549,
      "èĤīç±»": 5550,
      "ç§ĳåŃ¦å®¶ä»¬": 5551,
      "åįİçĽĽé¡¿": 5552,
      "éªĹ": 5553,
      "æķĻå¸Ī": 5554,
      "ç®ĢåĮĸ": 5555,
      "çĿ¡è§ī": 5556,
      "å¦»": 5557,
      "çļĦçĮ«": 5558,
      "éĢĨ": 5559,
      "éĶĻåĪ«": 5560,
      "ä¸įç¡®å®ļ": 5561,
      "å¤įæĿĤçļĦ": 5562,
      "çıįæĥľ": 5563,
      "éĶĻåĪ«åŃĹ": 5564,
      "è¿Ļä¸ªæķħäºĭ": 5565,
      "æĸ°æĬĢæľ¯": 5566,
      "è´¢å¯Į": 5567,
      "æĺ¯ä¸Ģå®¶": 5568,
      "åĩºçļĦ": 5569,
      "éĻĮçĶŁ": 5570,
      "çĩ¥": 5571,
      "âĦĥ": 5572,
      "å°ĸ": 5573,
      "ç»Ļäºº": 5574,
      "çĭ¼": 5575,
      "æĸľ": 5576,
      "çĶ¨éĢĶ": 5577,
      "çĲĨçĶ±": 5578,
      "çĽ¸å½ĵ": 5579,
      "é¡Į": 5580,
      "ä¸ĭçļĦ": 5581,
      "è¯·æł¹æį®": 5582,
      "ç«Ł": 5583,
      "æ¼«æŃ¥": 5584,
      "åĿĲåľ¨": 5585,
      "ä»ĸä»¬ä¹ĭéĹ´": 5586,
      "åĭĥ": 5587,
      "Ġ4": 5588,
      "éŃĤ": 5589,
      "æĶ¹åıĺäºĨ": 5590,
      "è®°å¾Ĺ": 5591,
      "ç¾İæĻ¯": 5592,
      "å±ıå¹ķ": 5593,
      "æĸ°éĹ»æłĩé¢ĺ": 5594,
      "å¼ºåº¦": 5595,
      "èŃ¦æĸ¹": 5596,
      "æķĮ": 5597,
      "è¿Ī": 5598,
      "æĺİäº®": 5599,
      "åı¯ä»¥çĶ¨äºİ": 5600,
      "å¾Īå¤ļäºº": 5601,
      "ä¸¤äºº": 5602,
      "æģĲæĢĸ": 5603,
      "éĹ»åĲį": 5604,
      "æııåĨĻ": 5605,
      "ä»¥åħ¶": 5606,
      "ä¸ĸçķĮåĲĦåľ°": 5607,
      "ä¸įåŃĺåľ¨": 5608,
      "it": 5609,
      "çİ°ä»£ç¤¾ä¼ļ": 5610,
      "ĠÃ·": 5611,
      "å¦Ĥä½ķåĪ¶ä½ľ": 5612,
      "åıĤæķ°": 5613,
      "åĲ¬éŁ³ä¹Ĳ": 5614,
      "æĺİçĻ½äºĨ": 5615,
      "æ³ª": 5616,
      "ĸæģ¯": 5617,
      "ä¿Ħ": 5618,
      "åģıè§ģ": 5619,
      "æľīæ°§": 5620,
      "è³ĩ": 5621,
      "æĸĩæľ¬è¿Ľè¡Į": 5622,
      "åľ°åĲį": 5623,
      "çļĦçĭ¬": 5624,
      "çļĦç¼ĸç¨ĭ": 5625,
      "å£³": 5626,
      "éĢļå¸¸ä¼ļ": 5627,
      "èĨľ": 5628,
      "åĲĦä¸ªé¢ĨåŁŁ": 5629,
      "æ¡Ĩ": 5630,
      "èħ¾": 5631,
      "å±ħä½ı": 5632,
      "å¼ķå¯¼": 5633,
      "æ²Ļåıĳ": 5634,
      "çļĦæ¡": 5635,
      "äººæĢ§": 5636,
      "åĴĮçĲĨè§£": 5637,
      "æıĲé«ĺäºĨ": 5638,
      "èĸ¯": 5639,
      "éĶĻè¿ĩ": 5640,
      "å·²æĪĲä¸º": 5641,
      "æł¹æį®èĩªå·±çļĦ": 5642,
      "æ£ĭ": 5643,
      "çŃĽ": 5644,
      "å»ºè®®åĲĹ": 5645,
      "åİŁåŃĲ": 5646,
      "åł´": 5647,
      "é£İæļ´": 5648,
      "æĿī": 5649,
      "çĭĹçļĦ": 5650,
      "è¡Įé©¶": 5651,
      "èī°": 5652,
      "çİ«": 5653,
      "åĳ¼åĲģ": 5654,
      "ãĢĤ\"<|": 5655,
      "çļĦæ²ŁéĢļ": 5656,
      "çļĦåĳ³éģĵ": 5657,
      "æ¶¨": 5658,
      "å¹²åĩĢ": 5659,
      "å°ĩ": 5660,
      "è°ĭ": 5661,
      "äºļé©¬": 5662,
      "çĤİçĥŃ": 5663,
      "ç¢ĳ": 5664,
      "å¾Īé«ĺåħ´": 5665,
      "è¡¨è¿°": 5666,
      "åĴĮä¸ªäºº": 5667,
      "å¹¿æ³ĽçļĦ": 5668,
      "åºĻ": 5669,
      "ç²®": 5670,
      "èĬĿå£«": 5671,
      "å¸¦çĿĢ": 5672,
      "åħ³éĹŃ": 5673,
      "çŃīå¤ļä¸ª": 5674,
      "æĽ´æĶ¹": 5675,
      "æİ¨è¿Ľ": 5676,
      "æŁ¿": 5677,
      "ä»İä¸Ń": 5678,
      "æĭĽèģĺ": 5679,
      "æ¯ķä¸ļ": 5680,
      "æĹ¥çĽĬ": 5681,
      "æ¿ĢçĥĪ": 5682,
      "æķ°æį®åĪĨæŀĲ": 5683,
      "æ¸©å®¤æ°Ķä½ĵæİĴæĶ¾": 5684,
      "æĪ¿å±ĭ": 5685,
      "è¿ĻäºĽéĥ½æĺ¯": 5686,
      "æĹ©æľŁ": 5687,
      "çļĦæ²Ļ": 5688,
      "ä½Ĩä¸į": 5689,
      "æĮ¯": 5690,
      "æĸĩè¨Ģ": 5691,
      "æľīæĦıä¹ī": 5692,
      "çļĦæĻ®": 5693,
      "ä½łæĺ¯": 5694,
      "ä¼Ĳ": 5695,
      "èĥľåľ°": 5696,
      "____": 5697,
      "å±Ĥæ¬¡": 5698,
      "ä¸Ģèĩ´": 5699,
      "èĺĳ": 5700,
      "åħģè®¸": 5701,
      "éĩıåŃĲåĬĽåŃ¦": 5702,
      "åĪĳ": 5703,
      "éĻªä¼´": 5704,
      "å®¢æľį": 5705,
      "è¿Ļæ®µè¯Ŀ": 5706,
      "æĪĳä»¬åľ¨": 5707,
      "æ¿ĢåĬ±": 5708,
      "çīĽä»Ķ": 5709,
      "çļĦçĬ¶æĢģ": 5710,
      "æĺĤ": 5711,
      "å¤§å¤§": 5712,
      "å©´": 5713,
      "æīİ": 5714,
      "çļĦä¾ĭåŃĲ": 5715,
      "æľĪäº®": 5716,
      "èĭ¹æŀľåħ¬åı¸": 5717,
      "ç¿ħ": 5718,
      "äºļé©¬éĢĬ": 5719,
      "at": 5720,
      "æĺ¯ä¸ĸçķĮä¸ĬæľĢ": 5721,
      "ç¥ĸ": 5722,
      "æĹ©æĻ¨": 5723,
      "æ´Ĵ": 5724,
      "æĥĳ": 5725,
      "ï¼ħ": 5726,
      "äººå·¥æĻºèĥ½æĬĢæľ¯åľ¨": 5727,
      "å¾Į": 5728,
      "çļĦæķ°åŃĹ": 5729,
      "æĺ¾å¾Ĺ": 5730,
      "å®īåħ¨åĴĮ": 5731,
      "åľ°çĲĨ": 5732,
      "æºª": 5733,
      "æľīæĹ¶åĢĻ": 5734,
      "é«ĺè´¨éĩı": 5735,
      "èĺĳèıĩ": 5736,
      "å»ºçŃĳçī©": 5737,
      "åĲĳéĩı": 5738,
      "èĥĥ": 5739,
      "åıĳéĢģ": 5740,
      "åŀĤ": 5741,
      "æĪĺæĸĹ": 5742,
      "ä¸ĢäºĽäºº": 5743,
      "æĸĩè¨Ģæĸĩ": 5744,
      "ä¿Ŀæļĸ": 5745,
      "åľ¨åĵªéĩĮ": 5746,
      "ä½Ĩä¹Ł": 5747,
      "æĨ": 5748,
      "æĢ»ä½ĵ": 5749,
      "é£İåħī": 5750,
      "ç¿Ķ": 5751,
      "çļĦå½¢å¼ı": 5752,
      "è¯Ńå¢ĥ": 5753,
      "ä¿®å¤į": 5754,
      "æ¾³": 5755,
      "åģ¥èº«æĪ¿": 5756,
      "éĿ¢ä¸´çĿĢ": 5757,
      "è¯¥åı¥åŃĲ": 5758,
      "æ©Ħæ¦Ħ": 5759,
      "çŃīäºİ": 5760,
      "å¹¶è¾ĵåĩº": 5761,
      "æķ°æį®åĴĮ": 5762,
      "çļĦæķĳèµİ": 5763,
      "æĬĢæľ¯çļĦåıĳå±ķ": 5764,
      "å¸ĤåľºèĲ¥éĶĢ": 5765,
      "æŀģç«¯å¤©æ°Ķ": 5766,
      "åľ¨ç»Ļå®ļçļĦ": 5767,
      "å²ģçļĦ": 5768,
      "é½¿": 5769,
      "èĵĿèī²çļĦ": 5770,
      "çİ«çĳ°": 5771,
      "æĪĳä»¬ä¼ļ": 5772,
      "çļĦæŃĮæĽ²": 5773,
      "å¤ĩåıĹ": 5774,
      "åĳĪçİ°åĩº": 5775,
      "èĿ´": 5776,
      "åĽ¾æ¡Ī": 5777,
      "æķħäºĭæĥħèĬĤ": 5778,
      "èĿ´èĿ¶": 5779,
      "æĶ¿æ²»": 5780,
      "è®©è®¡ç®Ĺæľº": 5781,
      "æĪĳä»¬åı¯ä»¥çĶ¨": 5782,
      "åĩºçīĪ": 5783,
      "å²Ĺ": 5784,
      "åĴĮçİ¯å¢ĥ": 5785,
      "æĪĺçķ¥": 5786,
      "äººå·¥æĻºèĥ½åĴĮ": 5787,
      "éĢļçŁ¥": 5788,
      "çļĦåľºæĻ¯": 5789,
      "æł¹æį®æłĩé¢ĺ": 5790,
      "ç¢³æİĴæĶ¾": 5791,
      "äºīè®®": 5792,
      "éĤ»": 5793,
      "åĪĨåĪ«æĺ¯": 5794,
      "ä¹Łèĥ½": 5795,
      "\"ãĢĤ": 5796,
      "ç«ĭåį³": 5797,
      "ç»ıèĲ¥": 5798,
      "è®¾å®ļ": 5799,
      "çļĦåĲįç§°": 5800,
      "çĪ¶æ¯į": 5801,
      "åįıè®®": 5802,
      "éĺ¿çĶĺ": 5803,
      "å¿«éĢŁåıĳå±ķ": 5804,
      "çĺ¦": 5805,
      "ç»¼ä¸ĬæīĢè¿°": 5806,
      "ç»³": 5807,
      "çĭ±": 5808,
      "åıĳè¡¨": 5809,
      "è¤": 5810,
      "åĲįåı«": 5811,
      "åºŁå¼ĥ": 5812,
      "æıŃç¤º": 5813,
      "ç§Ĵ": 5814,
      "èĥĸ": 5815,
      "éĶħä¸Ń": 5816,
      "å»ºéĢł": 5817,
      "ä¸Ģæ®µå¯¹è¯Ŀ": 5818,
      "ä¸ªä½ĵ": 5819,
      "æ¢ģ": 5820,
      "çĤī": 5821,
      "çļĦåĴĸåķ¡": 5822,
      "æ°¢": 5823,
      "æķ°æį®ä¸Ń": 5824,
      "åıĳçİ°äºĨ": 5825,
      "å¼ºåĮĸ": 5826,
      "éĢĶå¾Ħ": 5827,
      "ä½Ĩæĺ¯æĪĳ": 5828,
      "çļĦæĬ¥": 5829,
      "æĪĸç¼º": 5830,
      "å¤ªå¤ļ": 5831,
      "å¥½åĥı": 5832,
      "ç´łé£Ł": 5833,
      "åĲİçļĦåı¥åŃĲ": 5834,
      "å®ŀä½ĵè¯ĨåĪ«": 5835,
      "ç§ĳå¹»å°ıè¯´": 5836,
      "æĪª": 5837,
      "èĤĸçĶ³åħĭçļĦæķĳèµİ": 5838,
      "ä¸Ģåħ±": 5839,
      "æĪĲçĨŁ": 5840,
      "çŁ¶": 5841,
      "çļĦæ°ĶåĢĻ": 5842,
      "æĽ¿æį¢ä¸º": 5843,
      "æĽ´æŃ£": 5844,
      "æĭĴ": 5845,
      "æĴ°åĨĻ": 5846,
      "æĪĳåĴĮ": 5847,
      "ä¼ĺç¾İ": 5848,
      "å½»": 5849,
      "çĶµåŃĲåķĨåĬ¡": 5850,
      "å¹¼": 5851,
      "å¾¡": 5852,
      "æ²ĥ": 5853,
      "æ©Ł": 5854,
      "çİ¯ä¿ĿçļĦ": 5855,
      "çļĦæķ°åŃ¦": 5856,
      "èĥ¶": 5857,
      "åĴĮç®¡çĲĨ": 5858,
      "èħĬ": 5859,
      "ç»ĻæĪĳæİ¨èįĲ": 5860,
      "åĬłå·¥": 5861,
      "æĵ¦": 5862,
      "æĦıå¤ĸ": 5863,
      "åľ°åĿĢ": 5864,
      "å¤±ä¸ļ": 5865,
      "è±ĨèħĲ": 5866,
      "éŀĭåŃĲ": 5867,
      "çĶ¢": 5868,
      "å½¢æĢģ": 5869,
      "éĽķ": 5870,
      "çļĦåħ³éĶ®ä¿¡æģ¯": 5871,
      "å¼ķèµ·äºĨ": 5872,
      "æĳĦæ°ıåº¦": 5873,
      "äºĳè®¡ç®Ĺ": 5874,
      "ä¸Ģä¸ĭè¿Ļç¯ĩæĸĩç«ł": 5875,
      "æĸ°åĨł": 5876,
      "è¾ĥä¸º": 5877,
      "äººåĴĮ": 5878,
      "éĿŀå¸¸éĢĤåĲĪ": 5879,
      "å®¶éĩĮ": 5880,
      "æĸĩèīº": 5881,
      "è®©äººæĦŁåĪ°": 5882,
      "äººæķ°": 5883,
      "åŀ«": 5884,
      "æĪĸæĺ¯": 5885,
      "çī¹å®ļçļĦ": 5886,
      "æĦģ": 5887,
      "éĢıæ°Ķ": 5888,
      "è¯·ä»İ": 5889,
      "è¯·ä¸ºæĪĳ": 5890,
      "çĶµå½±åĲįç§°": 5891,
      "çĽĸèĮ¨": 5892,
      "åıĺéĩı": 5893,
      "çļĦä¸įåĲĮ": 5894,
      "å¿ĥèĦıçĹħ": 5895,
      "ob": 5896,
      "åıĺå¾Ĺè¶ĬæĿ¥è¶Ĭ": 5897,
      "çļĦæİĴæĶ¾": 5898,
      "æģ°": 5899,
      "çĥ¤ç®±": 5900,
      "éĢĤçĶ¨äºİ": 5901,
      "èħ¹": 5902,
      "åŁºäºİä»¥ä¸ĭ": 5903,
      "å§ľ": 5904,
      "èµ°äºĨ": 5905,
      "çļĦæĶ¿": 5906,
      "é«ĺçļĦå±±å³°": 5907,
      "å°ıæĺİåĴĮå°ıçº¢": 5908,
      "èĻ¾": 5909,
      "åı¯ä»¥ä»İ": 5910,
      "æİ¥è¿ĳ": 5911,
      "æĸ°æ¬¾": 5912,
      "æĪĲä¸ºä¸Ģä¸ª": 5913,
      "199": 5914,
      "ä¼ģä¸ļå®¶": 5915,
      "--": 5916,
      "åŁºäºİä»¥ä¸Ĭè¿Ļæ®µæĸĩæľ¬": 5917,
      "æ¯ıä¸ªäººéĥ½åºĶè¯¥": 5918,
      "ä¹ĭä¸Ń": 5919,
      "éĶ»çĤ¼èº«ä½ĵ": 5920,
      "çļĦè¡¨çİ°": 5921,
      "åĿļå®ļ": 5922,
      "è¿Ļæĺ¯ä¸Ģéĥ¨": 5923,
      "æķ°æį®è¿Ľè¡Į": 5924,
      "æ²¡æľīä»»ä½ķ": 5925,
      "æº¯": 5926,
      "åĮ»åŃ¦å½±åĥı": 5927,
      "ä¸ĭåĳ¨": 5928,
      "åĩıå°ĳä½¿çĶ¨": 5929,
      "åĩıèĤ¥": 5930,
      "çļĦä¸ľè¥¿": 5931,
      "äººä»¬å¯¹": 5932,
      "åĩłç§į": 5933,
      "éĺ³åħīæĺİåªļ": 5934,
      "çħ§é¡¾": 5935,
      "çļĦæłĳ": 5936,
      "éĶĻè¯¯è¿Ľè¡Į": 5937,
      "çĶľçĤ¹": 5938,
      "Ġä½ł": 5939,
      "çļĦæ¤į": 5940,
      "å¿ĹæĦ¿": 5941,
      "åĽºå®ļ": 5942,
      "çļĦä¸»è¦ģè§ĤçĤ¹æĺ¯": 5943,
      "åįļå®¢": 5944,
      "éŁ§": 5945,
      "ç®ĢåİĨ": 5946,
      "æ·±è¿ľçļĦå½±åĵį": 5947,
      "ä¸įåı¯æĪĸç¼º": 5948,
      "å¦ĤæŀľæĪĳä»¬": 5949,
      "è¢«è§Ĩä¸º": 5950,
      "çļĦæ³¨": 5951,
      "åħ´è¶£çĪ±å¥½": 5952,
      "è¿ĳæľŁ": 5953,
      "è¯¦ç»ĨçļĦ": 5954,
      "åĴĮç»ıæµİ": 5955,
      "åĳ¨æľŁ": 5956,
      "æĮĩä»¤": 5957,
      "åĨħçļĦ": 5958,
      "ç»Ļå®ļä¸Ģç¯ĩæĸĩç«ł": 5959,
      "ç¾İå¦Ļ": 5960,
      "è¸ı": 5961,
      "çĶŁæĢģçİ¯å¢ĥ": 5962,
      "ä¹Łå°Ĩ": 5963,
      "åĴĮåŃ¦ä¹ł": 5964,
      "çļĦäººçī©": 5965,
      "å¡ĳæĸĻè¢ĭ": 5966,
      "æĢ§æł¼": 5967,
      "èĶ¬èıľåĴĮ": 5968,
      "ðŁ": 5969,
      "çļĦæľĢä½³": 5970,
      "è¡¥åħħ": 5971,
      "çªģçł´": 5972,
      "æĿ¥åĩıå°ĳ": 5973,
      "åħ½": 5974,
      "è¯·å¸®æĪĳ": 5975,
      "è¯Ī": 5976,
      "åľ¨åħ¬åĽŃéĩĮ": 5977,
      "åıĸæ¶Ī": 5978,
      "èªīä¸º": 5979,
      "æľ¬è´¨": 5980,
      "åĪĽéĢłä¸Ģä¸ª": 5981,
      "èĥ¡æ¤Ĵ": 5982,
      "èĢĥèĻĳåĪ°": 5983,
      "ä½łèĥ½åĳĬè¯īæĪĳ": 5984,
      "åİĺç±³": 5985,
      "å¾®ç¬ĳ": 5986,
      "ç®¡çĲĨåĴĮ": 5987,
      "åĮħå®¹": 5988,
      "é¸ŁåĦ¿": 5989,
      "ç³Ł": 5990,
      "ä»¥åĲİ": 5991,
      "è§Ĵèī²ä»ĭç»į": 5992,
      "çļĦç¤¼": 5993,
      "ç¬¬ä¸Ģæ¬¡": 5994,
      "åĴĮæĬĢèĥ½": 5995,
      "èĨĢ": 5996,
      "çĶµå½±è¯Ħè®º": 5997,
      "ç§ĳæĬĢåħ¬åı¸": 5998,
      "åľŁè±Ĩ": 5999,
      "ä»¥åīį": 6000,
      "å¤ļæ¬¡": 6001,
      "çļĦæ³ķå¾ĭ": 6002,
      "å¥³åŃĲ": 6003,
      "åĬłå¯Ĩ": 6004,
      "çļĦæ¸©åº¦": 6005,
      "åĩłä¹İ": 6006,
      "åı¯ä»¥æıĲä¾Ľ": 6007,
      "æĤłä¹ħ": 6008,
      "çī©æµģ": 6009,
      "æĿīçŁ¶": 6010,
      "éĻĪè¿°åı¥": 6011,
      "æľ¨æĺŁ": 6012,
      "çį": 6013,
      "çļĦåŃ£èĬĤ": 6014,
      "åīĳ": 6015,
      "èĥĨ": 6016,
      "å¯¹å¾ħ": 6017,
      "å¨ģå¤·": 6018,
      "è¿Ļä¸ªè¯į": 6019,
      "èĪį": 6020,
      "è¾ĥé«ĺ": 6021,
      "å¤ıå¨ģå¤·": 6022,
      "åı¯ä»¥å¸®åĬ©åĮ»çĶŁ": 6023,
      "ä¼į": 6024,
      "æ¡ĮåŃĲ": 6025,
      "çļĦæµ·æ»©": 6026,
      "å®½æĿ¾": 6027,
      "ä»Ķç»Ĩ": 6028,
      "ä¼ĺéĽħ": 6029,
      "çļĦç¨ĭåºı": 6030,
      "ç»ŃåĨĻåı¤è¯Ĺ": 6031,
      "é©¬æĭī": 6032,
      "å»ºç«ĭä¸Ģä¸ª": 6033,
      "çļĦä»£è¡¨": 6034,
      "çļĦæīĭæľº": 6035,
      "å¸ĿåĽ½": 6036,
      "éľĢè¦ģè¿Ľè¡Į": 6037,
      "æľ¯è¯Ń": 6038,
      "å¹¶ä½¿çĶ¨": 6039,
      "æĪ¿åŃĲ": 6040,
      "éĴ¢çĲ´": 6041,
      "çİĭæĺŁ": 6042,
      "ä¸Ģå°ģ": 6043,
      "ç§ĺå¯Ĩ": 6044,
      "çļĦç¬ĳ": 6045,
      "åĿļæŀľ": 6046,
      "éĥ½å¾Ī": 6047,
      "åķı": 6048,
      "å¤ļå½©": 6049,
      "å¹²æī°": 6050,
      "ä½łåı¯ä»¥å°Ŀè¯ķ": 6051,
      "å·¾": 6052,
      "åĴĮæµ·": 6053,
      "çļĦå¸®åĬ©": 6054,
      "ä¸ºæĪĳä»¬": 6055,
      "ä¸ĭä¸Ģä¸ª": 6056,
      "æ¯ıä¸Ģä¸ª": 6057,
      "åĬłåī§": 6058,
      "å¤ĸè§Ĥ": 6059,
      "åĴĮèĶ¬èıľ": 6060,
      "å®³æĢķ": 6061,
      "å¹½é»ĺ": 6062,
      "ä¸Ģæ¬¡æĢ§": 6063,
      "çīĩæ®µ": 6064,
      "åĻª": 6065,
      "åıĸåĩº": 6066,
      "æ¸ł": 6067,
      "æĭĵå±ķ": 6068,
      "å«Įçĸĳ": 6069,
      "æĹħæ¸¸æĻ¯çĤ¹": 6070,
      "åĮħåĲ«äºĨ": 6071,
      "éĩįè¦ģçļĦä½ľçĶ¨": 6072,
      "ä¸įéĶĻçļĦéĢīæĭ©": 6073,
      "åĩıåİ»": 6074,
      "åİŁæĿ¥": 6075,
      "ç¿ł": 6076,
      "åī©ä½Ļ": 6077,
      "å¤ļå¹´": 6078,
      "åĳĢ": 6079,
      "è¿ĻäºĽæĬĢæľ¯": 6080,
      "èĪªç©º": 6081,
      "å½ĵæĪĳ": 6082,
      "æ¯ıä¸ªäººçļĦ": 6083,
      "åĸĦèī¯": 6084,
      "çĸı": 6085,
      "æ¡¶": 6086,
      "ä¸įçĶ¨": 6087,
      "ä¸»åĬ¨": 6088,
      "æ¯Ķäºļ": 6089,
      "æ¯Ķå¦Ĥè¯´": 6090,
      "æĢ§è´¨": 6091,
      "åı¯è¯»": 6092,
      "ä¿ĿæĮģèº«ä½ĵåģ¥åº·": 6093,
      "åĺ´": 6094,
      "çĶ¨æĪ·çļĦ": 6095,
      "å¹¿éĺĶ": 6096,
      "å¯Ĩåº¦": 6097,
      "èĤ©": 6098,
      "æĮĩæłĩ": 6099,
      "åľ°éĵģ": 6100,
      "æĺŁæĺŁ": 6101,
      "è¿ģ": 6102,
      "å½ĵæĪĳä»¬": 6103,
      "ç»Ĩèħ»": 6104,
      "åĮĹäº¬å¸Ĥ": 6105,
      "åħ¨éĥ¨": 6106,
      "è¿Ŀåıį": 6107,
      "æľ¬å°ıè¯´": 6108,
      "çİ°çĬ¶": 6109,
      "å±ķçİ°äºĨ": 6110,
      "å¯Ħ": 6111,
      "è®©å®ĥ": 6112,
      "æĬĳéĥģ": 6113,
      "çļĦç©ºæ°Ķ": 6114,
      "ç»µ": 6115,
      "åĨ°å·Ŀ": 6116,
      "éļĨ": 6117,
      "Ġ(": 6118,
      "oo": 6119,
      "éģĹä¼ł": 6120,
      "æĮº": 6121,
      "å¤§æĪĺ": 6122,
      "åĩĨå¤ĩå¥½": 6123,
      "é¢ĳçİĩ": 6124,
      "ä¸Ĭæĺł": 6125,
      "ç¥ŀå¥ĩ": 6126,
      "æľīæ°§è¿ĲåĬ¨": 6127,
      "çļĦç¡": 6128,
      "æĢİä¹Īåģļ": 6129,
      "çļĦçł´": 6130,
      "ä»Ĭå¤©çļĦå¤©æ°Ķ": 6131,
      "è¿Ļä¸¤": 6132,
      "æĭħä»»": 6133,
      "æ¸´": 6134,
      "çĸ¾çĹħçļĦ": 6135,
      "çļĦæĢĿèĢĥ": 6136,
      "å§Ĩæĸ¯": 6137,
      "å®īåħ¨æĢ§": 6138,
      "åĪ¸": 6139,
      "ĠAI": 6140,
      "ä¸ĸçķĮä¸Ĭ": 6141,
      "èĮ«": 6142,
      "çļĦæĢĿç»´": 6143,
      "è¿ĺè¦ģ": 6144,
      "çĽ¸çŃī": 6145,
      "è¯¦ç»ĨåĽŀçŃĶ": 6146,
      "åŀĥåľ¾éĤ®ä»¶": 6147,
      "å±ķç¤ºäºĨ": 6148,
      "åĨĮ": 6149,
      "ä»£è°¢": 6150,
      "æ´ĽæĿīçŁ¶": 6151,
      "ç½²": 6152,
      "çļĦéĢŁåº¦": 6153,
      "Ja": 6154,
      "æ¶Į": 6155,
      "çĲ³": 6156,
      "çļĦæ°Ķæģ¯": 6157,
      "æĸĩæľ¬ä¸ŃçļĦåħ³éĶ®è¯į": 6158,
      "éĢīæĭ©éĢĤåĲĪ": 6159,
      "è¡°": 6160,
      "æĤ²ä¼¤": 6161,
      "æģĴæĺŁ": 6162,
      "æłĳæľ¨": 6163,
      "èı²å°Ķ": 6164,
      "æĹĹ": 6165,
      "è¯·æĢ»ç»ĵ": 6166,
      "éĹ®é¢ĺåĴĮ": 6167,
      "ç´łè´¨": 6168,
      "çļĦåħī": 6169,
      "å¿į": 6170,
      "çĨŁæĤī": 6171,
      "è¢«èªīä¸º": 6172,
      "éŁ¿": 6173,
      "ä¹ĺåĿĲ": 6174,
      "å©ļç¤¼": 6175,
      "ç¿Ĵ": 6176,
      "å®ļå¾ĭ": 6177,
      "Ġä½¿çĶ¨": 6178,
      "è®¤åı¯": 6179,
      "åį±æľº": 6180,
      "çļĦä¸Ģæ®µå¯¹è¯Ŀ": 6181,
      "å®´": 6182,
      "çļĦèĭ¹æŀľ": 6183,
      "è¡¬è¡«": 6184,
      "æ°Ľ": 6185,
      "ä¸ĬçıŃ": 6186,
      "é»Ľ": 6187,
      "çļĦèĩªçĦ¶": 6188,
      "éĿ¢æĿ¡": 6189,
      "æľĢéĢĤåĲĪ": 6190,
      "äººä»¬åľ¨": 6191,
      "70": 6192,
      "å¹³éĿĻ": 6193,
      "å®ĮæĪĲä»»åĬ¡": 6194,
      "çļĦé¢ĨåŁŁ": 6195,
      "è¿Ļæł·åı¯ä»¥": 6196,
      "çļĦåĬŁèĥ½": 6197,
      "çļĦæ¯ĶèµĽ": 6198,
      "å¦Ĥä»Ĭ": 6199,
      "ä»ĩ": 6200,
      "ä¸ĭéĿ¢çļĦæĸĩæľ¬": 6201,
      "ä»¥ä¸ĭåĩłä¸ª": 6202,
      "èĪĴéĢĤçļĦ": 6203,
      "æĺ¯ä¸ºäºĨ": 6204,
      "åľ°çĲĥä¸Ĭ": 6205,
      "çĵ¦": 6206,
      "æĸĩæľ¬åĪĨç±»": 6207,
      "åħ¶ä»ĸäºº": 6208,
      "åģļä¸ĢäºĽ": 6209,
      "çļĦå®ļä¹ī": 6210,
      "åĮ¹éħį": 6211,
      "è´·": 6212,
      "èķ´åĲ«": 6213,
      "åĩĮ": 6214,
      "å®ĥä»¬åľ¨": 6215,
      "DNA": 6216,
      "éľĢè¦ģåľ¨": 6217,
      "æī¿æĭħ": 6218,
      "åĩºçİ°åľ¨": 6219,
      "å°±èĥ½": 6220,
      "ä¹Ĳè§Ĥ": 6221,
      "è¢Ń": 6222,
      "çļĦç¾İæĻ¯": 6223,
      "éĵģå¡Ķ": 6224,
      "æ·±æ·±": 6225,
      "ç¼ĸç¨ĭè¯Ńè¨Ģ": 6226,
      "ç»ĺçĶ»": 6227,
      "æĹĭè½¬": 6228,
      "åı£åı·": 6229,
      "ç»Ŀå¯¹": 6230,
      "çļĦè§ĤçĤ¹": 6231,
      "ä¸»æ¼Ķ": 6232,
      "ä¸ªåŃĹ": 6233,
      "çĳŁ": 6234,
      "éļ¾é¢ĺ": 6235,
      "åŃ¦ä¹łæĸ°": 6236,
      "åĲİæĿ¥": 6237,
      "ç¾İåĽ½æĢ»ç»Ł": 6238,
      "åħ¶ä¸Ńä¸Ģä¸ª": 6239,
      "åĬŀæ³ķ": 6240,
      "æĭ¥åłµ": 6241,
      "åĴĮå¯¹": 6242,
      "å¯¹æĸĩæľ¬éĶĻè¯¯è¿Ľè¡Į": 6243,
      "æ¨ª": 6244,
      "åģļèµ·": 6245,
      "éĿ¢ç²ī": 6246,
      "èĢģäºº": 6247,
      "åĲ«éĩı": 6248,
      "ç»Ļä½łä¸¤ä¸ª": 6249,
      "è®©ä»ĸä»¬": 6250,
      "ç±»ä¼¼äºİ": 6251,
      "éĹ¹": 6252,
      "ä¿¡çĶ¨": 6253,
      "åĿ¡": 6254,
      "åĽłä¸ºæĪĳ": 6255,
      "åĽ´ç»ķ": 6256,
      "å¯¹è¯Ŀä¸Ń": 6257,
      "åķ¦": 6258,
      "é£İåĲ¹": 6259,
      "çĶŁæĪĲä¸Ģé¦ĸ": 6260,
      "çĶ·äºº": 6261,
      "å¹¶å¯¹": 6262,
      "æµĨ": 6263,
      "çŃīå¤ļç§į": 6264,
      "æ²³æµģ": 6265,
      "æĸĩæľ¬çºłéĶĻ": 6266,
      "AP": 6267,
      "æĢĴ": 6268,
      "çľĭçĿĢ": 6269,
      "åħ¼": 6270,
      "å¹²æĹ±": 6271,
      "ç¼ĸè¾ĳä¸ĭéĿ¢": 6272,
      "æĿľ": 6273,
      "åĴĮå°ı": 6274,
      "å¸ħ": 6275,
      "è·Łè¸ª": 6276,
      "åľĨå½¢": 6277,
      "åĴĮä½¿çĶ¨": 6278,
      "æĹĭå¾ĭ": 6279,
      "è½¨éģĵ": 6280,
      "è¿½æº¯": 6281,
      "åħĥéĴ±": 6282,
      "ä¸´åºĬ": 6283,
      "æĶ¾ç½®": 6284,
      "äººå·¥æĻºèĥ½å°Ĩ": 6285,
      "èĢĲå¿ĥ": 6286,
      "å¦ĤæŀľæĤ¨éľĢè¦ģ": 6287,
      "çĶŁæĪĲä»ĸä»¬ä¹ĭéĹ´": 6288,
      "è¦ģæ±Ĥå¯¹è¯ĿåĨħå®¹": 6289,
      "è¯¦ç»Ĩä¸°å¯Į": 6290,
      "è§Ĵèī²ä¿¡æģ¯å¦Ĥä¸ĭ": 6291,
      "ç»Ļä½łä¸¤ä¸ªè§Ĵèī²ä¿¡æģ¯å¦Ĥä¸ĭ": 6292,
      "çĶŁæĪĲä»ĸä»¬ä¹ĭéĹ´çļĦä¸Ģæ®µå¯¹è¯Ŀ": 6293,
      "è¦ģæ±Ĥå¯¹è¯ĿåĨħå®¹è¯¦ç»Ĩä¸°å¯Į": 6294,
      "éĽĩ": 6295,
      "1000": 6296,
      "æŀļ": 6297,
      "ä»¥éģ¿åħį": 6298,
      "è¾¾æĪĲ": 6299,
      "¬éĹ´": 6300,
      "æł¼å¼ı": 6301,
      "Ġä»ĸ": 6302,
      "æĶ¹éĿ©": 6303,
      "èĤĿ": 6304,
      "æľĢéĩįè¦ģçļĦæĺ¯": 6305,
      "Ġè¿Ļä¸ª": 6306,
      "ç½Ĺé©¬": 6307,
      "äºĨä¸Ģåľº": 6308,
      "èľľèľĤ": 6309,
      "æ°Ķè±¡": 6310,
      "åħ±åĲĮåĬªåĬĽ": 6311,
      "æłĩçĤ¹ç¬¦åı·": 6312,
      "æĹłæķ°": 6313,
      "æ¯Ķçī¹": 6314,
      "ç²¾èĩ´": 6315,
      "å®¢è§Ĥ": 6316,
      "çļĦæĢĿæĥ³": 6317,
      "çļĦçĤ": 6318,
      "æĢ§éĹ®é¢ĺ": 6319,
      "æ¹¾": 6320,
      "çľĭäºĨ": 6321,
      "å·²ç»ıåľ¨": 6322,
      "åĢ¡": 6323,
      "å¿ĥè¡Ģç®¡": 6324,
      "ç¿»è¯ĳæĪĲçİ°ä»£": 6325,
      "èĬĤçľģ": 6326,
      "æłĳåı¶": 6327,
      "éĢĲæŃ¥": 6328,
      "åħ¨çĲĥæ°ĶåĢĻåıĺåĮĸ": 6329,
      "çĶŁåĳ½çļĦ": 6330,
      "ç¬Ķè®°": 6331,
      "ĸæģ¯åľ°": 6332,
      "åħĭæĸ¯": 6333,
      "æľºåĻ¨åŃ¦ä¹łåĴĮ": 6334,
      "åģļä»Ģä¹Ī": 6335,
      "ä¿¡æģ¯åĴĮ": 6336,
      "åĨĽäºĭ": 6337,
      "äººå·¥æĻºèĥ½æĬĢæľ¯çļĦ": 6338,
      "ç¿»è¯ĳæĪĲæĸĩè¨Ģæĸĩ": 6339,
      "å¼¯": 6340,
      "ç»ĦæĪĲçļĦ": 6341,
      "èįīåİŁ": 6342,
      "è¿ĩæ»¤": 6343,
      "åħįè´¹": 6344,
      "ä¸Ńåįİ": 6345,
      "è®©æĤ¨": 6346,
      "çļĦæĤ": 6347,
      "ç®Ģæĺİ": 6348,
      "æĺ¯ä»Ģä¹ĪæĦıæĢĿ": 6349,
      "æľīå¤ļå°ĳ": 6350,
      "æľīäºĨ": 6351,
      "ä¸ĭåİ»": 6352,
      "å¯¦": 6353,
      "çĶŁäº§åĬĽ": 6354,
      "éĨĭ": 6355,
      "å¦ĤæŀľæĤ¨åĸľæ¬¢": 6356,
      "ç»ĵæŀĦåĴĮ": 6357,
      "å®ĿèĹı": 6358,
      "èµ¢å¾ĹäºĨ": 6359,
      "æĺ¯ä¸Ģä¸ªéĿŀå¸¸": 6360,
      "æł¹æį®ä»¥ä¸Ĭ": 6361,
      "...": 6362,
      "è¯ŃæĢģ": 6363,
      "æĪĳçĽ¸ä¿¡": 6364,
      "è¿Ļä¸ªæĸĩæľ¬": 6365,
      "ä¸ĸçķĮçļĦ": 6366,
      "ä¸įåºĶè¯¥": 6367,
      "åĳ½åĲį": 6368,
      "éħįåĲĪ": 6369,
      "åľ¨è¿Ļç§į": 6370,
      "åı¥åŃĲä¸ŃçļĦ": 6371,
      "èº«ä¸Ĭ": 6372,
      "è¿Ļç¯ĩæĸĩç«łä¸»è¦ģ": 6373,
      "åĲ¦å®ļ": 6374,
      "æĿ¥è¿Ľè¡Į": 6375,
      "å¥¹åľ¨": 6376,
      "é«ĺæ¸©": 6377,
      "èģĶçĽŁ": 6378,
      "è¥¿çĵľ": 6379,
      "ç¿»è¯ĳæĪĲçİ°ä»£æĸĩ": 6380,
      "ä¹ĭæĥħ": 6381,
      "çĮ´": 6382,
      "æĲľç´¢å¼ķæĵİ": 6383,
      "èīºæľ¯åĵģ": 6384,
      "çĽ¸åĲĮçļĦ": 6385,
      "æ»ĭ": 6386,
      "è¶ĬæĿ¥è¶Ĭå¤ļçļĦ": 6387,
      "çº¿ä¸Ĭ": 6388,
      "è¡¨è¾¾æĸ¹å¼ı": 6389,
      "çºªå¿µ": 6390,
      "éĢĽ": 6391,
      "æĽ´å¤§çļĦ": 6392,
      "é¢ĳç¹ģ": 6393,
      "çļĦæ³¨æĦı": 6394,
      "è¿ŀè´¯": 6395,
      "è¿½éĢĲ": 6396,
      "åĩıè½»åİĭåĬĽ": 6397,
      "ç»ĵå±Ģ": 6398,
      "éħ·": 6399
    },
    "merges": [
      [
        "ä",
        "¸"
      ],
      [
        "ï",
        "¼"
      ],
      [
        "ç",
        "ļ"
      ],
      [
        "çļ",
        "Ħ"
      ],
      [
        "ï¼",
        "Į"
      ],
      [
        "ã",
        "Ģ"
      ],
      [
        "ãĢ",
        "Ĥ"
      ],
      [
        "ä",
        "º"
      ],
      [
        "ä",
        "»"
      ],
      [
        "å",
        "ı"
      ],
      [
        "æ",
        "ľ"
      ],
      [
        "è",
        "¿"
      ],
      [
        "æ",
        "Ī"
      ],
      [
        "å",
        "ħ"
      ],
      [
        "ä",
        "½"
      ],
      [
        "æ",
        "ĺ"
      ],
      [
        "å",
        "¤"
      ],
      [
        "i",
        "m"
      ],
      [
        "|",
        ">"
      ],
      [
        "<",
        "|"
      ],
      [
        "è",
        "¯"
      ],
      [
        "ä¸",
        "Ģ"
      ],
      [
        "æ",
        "ĸ"
      ],
      [
        "å",
        "®"
      ],
      [
        "ç",
        "Ķ"
      ],
      [
        "å",
        "Ī"
      ],
      [
        "å",
        "Ĵ"
      ],
      [
        "å",
        "ľ"
      ],
      [
        "åĴ",
        "Į"
      ],
      [
        "å",
        "Ĳ"
      ],
      [
        "å",
        "Ĭ"
      ],
      [
        "ç",
        "»"
      ],
      [
        "ä",
        "¹"
      ],
      [
        "æĺ",
        "¯"
      ],
      [
        "å",
        "°"
      ],
      [
        "å",
        "Ń"
      ],
      [
        "ä¸",
        "ª"
      ],
      [
        "ä»",
        "¥"
      ],
      [
        "è",
        "®"
      ],
      [
        "ãĢ",
        "ģ"
      ],
      [
        "æĪ",
        "ĳ"
      ],
      [
        "åľ",
        "¨"
      ],
      [
        "äº",
        "º"
      ],
      [
        "ĥ",
        "½"
      ],
      [
        "a",
        "r"
      ],
      [
        "e",
        "n"
      ],
      [
        "s",
        "t"
      ],
      [
        "ar",
        "t"
      ],
      [
        "en",
        "d"
      ],
      [
        "st",
        "art"
      ],
      [
        "æľ",
        "ī"
      ],
      [
        "ï¼",
        "ļ"
      ],
      [
        "æ",
        "Ĺ"
      ],
      [
        "äº",
        "Ĩ"
      ],
      [
        "åı",
        "¯"
      ],
      [
        "è¿",
        "Ļ"
      ],
      [
        "å",
        "Ľ"
      ],
      [
        "æ",
        "Ŀ"
      ],
      [
        "å",
        "º"
      ],
      [
        "é",
        "ĩ"
      ],
      [
        "å",
        "¹"
      ],
      [
        "å",
        "¸"
      ],
      [
        "ä¸",
        "Ń"
      ],
      [
        "ä",
        "¼"
      ],
      [
        "é",
        "Ģ"
      ],
      [
        "è",
        "¡"
      ],
      [
        "è",
        "ĥ½"
      ],
      [
        "çļĦ",
        "æ"
      ],
      [
        "å",
        "ĩ"
      ],
      [
        "ãĢĤ",
        "<|"
      ],
      [
        "å",
        "·"
      ],
      [
        "æĸ",
        "ĩ"
      ],
      [
        "å",
        "Į"
      ],
      [
        "è",
        "¦"
      ],
      [
        "è¦",
        "ģ"
      ],
      [
        "é",
        "¢"
      ],
      [
        "å",
        "¯"
      ],
      [
        "å",
        "¾"
      ],
      [
        "å",
        "Ĩ"
      ],
      [
        "ä¸",
        "º"
      ],
      [
        "è",
        "§"
      ],
      [
        "å",
        "¥"
      ],
      [
        "ç",
        "ī"
      ],
      [
        "ç",
        "§"
      ],
      [
        "ä»",
        "¬"
      ],
      [
        "é",
        "Ĺ"
      ],
      [
        "ç",
        "İ"
      ],
      [
        "å",
        "¼"
      ],
      [
        "ä¸",
        "į"
      ],
      [
        "çĶ",
        "¨"
      ],
      [
        "æ",
        "ķ"
      ],
      [
        "è",
        "Ģ"
      ],
      [
        "å",
        "½"
      ],
      [
        "æ",
        "Ģ"
      ],
      [
        "æ",
        "ŀ"
      ],
      [
        "çĶ",
        "Ł"
      ],
      [
        "ç",
        "Ń"
      ],
      [
        "æ",
        "ı"
      ],
      [
        "æ",
        "ī"
      ],
      [
        "æ",
        "Ń"
      ],
      [
        "åı¯",
        "ä»¥"
      ],
      [
        "é",
        "Ŀ"
      ],
      [
        "å",
        "į"
      ],
      [
        "Ġ",
        "<|"
      ],
      [
        "ä",
        "¿"
      ],
      [
        "æ",
        "Ĭ"
      ],
      [
        "æ",
        "ł"
      ],
      [
        "æ",
        "³"
      ],
      [
        "ç",
        "Ľ"
      ],
      [
        "â",
        "Ģ"
      ],
      [
        "æĿ",
        "¥"
      ],
      [
        "è",
        "ĩ"
      ],
      [
        "æ",
        "Ħ"
      ],
      [
        "å",
        "ĵ"
      ],
      [
        "å",
        "¦"
      ],
      [
        "ä¸",
        "ĭ"
      ],
      [
        "ç",
        "Ĳ"
      ],
      [
        "ä¸Ģ",
        "ä¸ª"
      ],
      [
        "æĪ",
        "Ĳ"
      ],
      [
        "å",
        "İ"
      ],
      [
        "æ",
        "ĥ"
      ],
      [
        "æı",
        "Ĳ"
      ],
      [
        "æ",
        "°"
      ],
      [
        "åĪ",
        "°"
      ],
      [
        "ä»",
        "ĸ"
      ],
      [
        "æ",
        "Ľ"
      ],
      [
        "åŃ",
        "¦"
      ],
      [
        "æ",
        "Ļ"
      ],
      [
        "å¦",
        "Ĥ"
      ],
      [
        "è¡",
        "Į"
      ],
      [
        "åĩ",
        "º"
      ],
      [
        "å",
        "ĳ"
      ],
      [
        "å",
        "¿"
      ],
      [
        "æĹ",
        "¶"
      ],
      [
        "å¯",
        "¹"
      ],
      [
        "æ",
        "ĭ"
      ],
      [
        "ä½",
        "ł"
      ],
      [
        "åŃ",
        "Ĳ"
      ],
      [
        "ä",
        "¾"
      ],
      [
        "äº",
        "İ"
      ],
      [
        "æ",
        "İ"
      ],
      [
        "åľ",
        "°"
      ],
      [
        "é¢",
        "ĺ"
      ],
      [
        "ä¸",
        "Ĭ"
      ],
      [
        "ç",
        "«"
      ],
      [
        "æ",
        "Ķ"
      ],
      [
        "è",
        "´"
      ],
      [
        "å°",
        "ı"
      ],
      [
        "å¥",
        "½"
      ],
      [
        "ä¼",
        "ļ"
      ],
      [
        "çŃ",
        "ī"
      ],
      [
        "æĸ",
        "¹"
      ],
      [
        "æľ",
        "¬"
      ],
      [
        "èĩ",
        "ª"
      ],
      [
        "åĪ",
        "Ĩ"
      ],
      [
        "æĽ",
        "´"
      ],
      [
        "äº",
        "Ľ"
      ],
      [
        "å¤",
        "ļ"
      ],
      [
        "æ",
        "µ"
      ],
      [
        "æ",
        "¯"
      ],
      [
        "è",
        "µ"
      ],
      [
        "å¤",
        "§"
      ],
      [
        "å",
        "±"
      ],
      [
        "æ",
        "į"
      ],
      [
        "ï¼",
        "Ł"
      ],
      [
        "åĬ",
        "¨"
      ],
      [
        "ä½",
        "ľ"
      ],
      [
        "å·",
        "¥"
      ],
      [
        "çī",
        "©"
      ],
      [
        "ç",
        "º"
      ],
      [
        "åħ",
        "³"
      ],
      [
        "è",
        "¾"
      ],
      [
        "å¹",
        "¶"
      ],
      [
        "åı",
        "ĳ"
      ],
      [
        "ç",
        "®"
      ],
      [
        "æ",
        "Į"
      ],
      [
        "ç",
        "±"
      ],
      [
        "é",
        "£"
      ],
      [
        "é",
        "ľ"
      ],
      [
        "æĪĳ",
        "ä»¬"
      ],
      [
        "éĿ",
        "¢"
      ],
      [
        "æ",
        "´"
      ],
      [
        "å®",
        "ļ"
      ],
      [
        "æľ",
        "Ģ"
      ],
      [
        "åħ",
        "¶"
      ],
      [
        "æŀ",
        "ľ"
      ],
      [
        "å",
        "Ł"
      ],
      [
        "æ",
        "¬"
      ],
      [
        "ç§",
        "į"
      ],
      [
        "çİ",
        "°"
      ],
      [
        "çļĦ",
        "ç"
      ],
      [
        "è¿",
        "Ľ"
      ],
      [
        "æ³",
        "ķ"
      ],
      [
        "é",
        "Ļ"
      ],
      [
        "è¿",
        "ĩ"
      ],
      [
        "æ",
        "Ĥ"
      ],
      [
        "éĹ",
        "®"
      ],
      [
        "å",
        "ģ"
      ],
      [
        "æ",
        "¸"
      ],
      [
        "ä½",
        "ĵ"
      ],
      [
        "è",
        "ī"
      ],
      [
        "å¤",
        "©"
      ],
      [
        "å®",
        "ĥ"
      ],
      [
        "æį",
        "®"
      ],
      [
        "ç»",
        "Ļ"
      ],
      [
        "åĬ",
        "Ľ"
      ],
      [
        "çĲ",
        "Ĩ"
      ],
      [
        "æĺ",
        "İ"
      ],
      [
        "éľ",
        "Ģ"
      ],
      [
        "æ",
        "²"
      ],
      [
        "å°",
        "Ĩ"
      ],
      [
        "åº",
        "Ķ"
      ],
      [
        "åĬ",
        "ł"
      ],
      [
        "ç±",
        "»"
      ],
      [
        "æĸ",
        "°"
      ],
      [
        "é",
        "ģ"
      ],
      [
        "ç",
        "Ĥ"
      ],
      [
        "åĮ",
        "ĸ"
      ],
      [
        "æĢ",
        "§"
      ],
      [
        "ç",
        "Ħ"
      ],
      [
        "é",
        "«"
      ],
      [
        "åĲ",
        "Į"
      ],
      [
        "æĪ",
        "ĸ"
      ],
      [
        "ä½",
        "¿"
      ],
      [
        "åĽ",
        "ł"
      ],
      [
        "ä¿",
        "Ŀ"
      ],
      [
        "å¸",
        "¸"
      ],
      [
        "éĩ",
        "į"
      ],
      [
        "ç",
        "ľ"
      ],
      [
        "é«",
        "ĺ"
      ],
      [
        "åı",
        "¥"
      ],
      [
        "è",
        "½"
      ],
      [
        "æĦ",
        "Ł"
      ],
      [
        "å®",
        "¶"
      ],
      [
        "ä¹",
        "Ł"
      ],
      [
        "æľ",
        "º"
      ],
      [
        "å½",
        "±"
      ],
      [
        "è",
        "¶"
      ],
      [
        "æ",
        "±"
      ],
      [
        "ä¸",
        "»"
      ],
      [
        "é",
        "Ķ"
      ],
      [
        "é",
        "ĺ"
      ],
      [
        "è¯",
        "Ń"
      ],
      [
        "çĦ",
        "¶"
      ],
      [
        "ç«",
        "ł"
      ],
      [
        "å¾",
        "Ĺ"
      ],
      [
        "âĢ",
        "Ŀ"
      ],
      [
        "æķ",
        "°"
      ],
      [
        "æĸĩ",
        "ç«ł"
      ],
      [
        "éĢ",
        "ļ"
      ],
      [
        "åĵ",
        "ģ"
      ],
      [
        "âĢ",
        "ľ"
      ],
      [
        "ç",
        "³"
      ],
      [
        "éľĢ",
        "è¦ģ"
      ],
      [
        "çĶ",
        "µ"
      ],
      [
        "æĬ",
        "Ģ"
      ],
      [
        "æĻ",
        "º"
      ],
      [
        "è",
        "°"
      ],
      [
        "è§",
        "£"
      ],
      [
        "æĸĩ",
        "æľ¬"
      ],
      [
        "ä¹",
        "ĭ"
      ],
      [
        "ä¹",
        "Ī"
      ],
      [
        "æĥ",
        "ħ"
      ],
      [
        "æĤ",
        "¨"
      ],
      [
        "éĹ®",
        "é¢ĺ"
      ],
      [
        "åº",
        "¦"
      ],
      [
        "ç",
        "Ł"
      ],
      [
        "èĢ",
        "Į"
      ],
      [
        "å",
        "ī"
      ],
      [
        "æ",
        "ģ"
      ],
      [
        "è¡",
        "¨"
      ],
      [
        "ç»",
        "ı"
      ],
      [
        "æĻº",
        "èĥ½"
      ],
      [
        "è¯",
        "·"
      ],
      [
        "ç",
        "Ŀ"
      ],
      [
        "å¾",
        "Ī"
      ],
      [
        "éĹ",
        "´"
      ],
      [
        "æŃ",
        "¤"
      ],
      [
        "è",
        "Ĭ"
      ],
      [
        "å",
        "ĸ"
      ],
      [
        "ç",
        "¾"
      ],
      [
        "åħ",
        "¬"
      ],
      [
        "å",
        "¢"
      ],
      [
        "éĩ",
        "ı"
      ],
      [
        "åĽ",
        "½"
      ],
      [
        "ç",
        "©"
      ],
      [
        "çĤ",
        "¹"
      ],
      [
        "æľ",
        "¯"
      ],
      [
        "ç",
        "¤"
      ],
      [
        "èī",
        "²"
      ],
      [
        "è",
        "Ĥ"
      ],
      [
        "èĢ",
        "ħ"
      ],
      [
        "è¯",
        "į"
      ],
      [
        "å¹",
        "´"
      ],
      [
        "å®",
        "ŀ"
      ],
      [
        "æ°",
        "Ķ"
      ],
      [
        "å",
        "»"
      ],
      [
        "å",
        "Ģ"
      ],
      [
        "åı",
        "ĸ"
      ],
      [
        "ä¿",
        "¡"
      ],
      [
        "è¿Ļ",
        "ä¸ª"
      ],
      [
        "ä¹",
        "ł"
      ],
      [
        "åĲ",
        "į"
      ],
      [
        "ç",
        "¨"
      ],
      [
        "å¿",
        "ĥ"
      ],
      [
        "ä½",
        "Ĩ"
      ],
      [
        "åĲ",
        "Ī"
      ],
      [
        "æĦ",
        "ı"
      ],
      [
        "è¯",
        "¥"
      ],
      [
        "ä¸",
        "ļ"
      ],
      [
        "ä¾",
        "Ľ"
      ],
      [
        "ç",
        "ĸ"
      ],
      [
        "è®",
        "¡"
      ],
      [
        "åĲ",
        "İ"
      ],
      [
        "ç",
        "¡"
      ],
      [
        "é",
        "Ĥ"
      ],
      [
        "äº",
        "ĭ"
      ],
      [
        "æī",
        "Ģ"
      ],
      [
        "ä»¥",
        "ä¸ĭ"
      ],
      [
        "ä»",
        "İ"
      ],
      [
        "è¿",
        "ĺ"
      ],
      [
        "å»",
        "º"
      ],
      [
        "æ",
        "®"
      ],
      [
        "çĽ",
        "¸"
      ],
      [
        "çĿ",
        "Ģ"
      ],
      [
        "çĲ",
        "ĥ"
      ],
      [
        "ä¸Ģ",
        "äºĽ"
      ],
      [
        "é",
        "ĥ½"
      ],
      [
        "åĮ",
        "ħ"
      ],
      [
        "æıĲ",
        "ä¾Ľ"
      ],
      [
        "æ´",
        "»"
      ],
      [
        "ä¸",
        "İ"
      ],
      [
        "ç¾",
        "İ"
      ],
      [
        "æł",
        "¹"
      ],
      [
        "è¿Ľ",
        "è¡Į"
      ],
      [
        "æ",
        "Ł"
      ],
      [
        "åı¥",
        "åŃĲ"
      ],
      [
        "ç",
        "½"
      ],
      [
        "å¼",
        "ı"
      ],
      [
        "é£",
        "Ł"
      ],
      [
        "åħ",
        "¥"
      ],
      [
        "å±",
        "ķ"
      ],
      [
        "åħ",
        "¨"
      ],
      [
        "éĩ",
        "Į"
      ],
      [
        "è¿",
        "°"
      ],
      [
        "äºº",
        "å·¥"
      ],
      [
        "å¤",
        "ĸ"
      ],
      [
        "çİ",
        "¯"
      ],
      [
        "é",
        "¡"
      ],
      [
        "ç",
        "ķ"
      ],
      [
        "çī",
        "¹"
      ],
      [
        "ä½¿",
        "çĶ¨"
      ],
      [
        "æĥ",
        "³"
      ],
      [
        "ç",
        "´"
      ],
      [
        "éĿ",
        "ŀ"
      ],
      [
        "è",
        "Ĳ"
      ],
      [
        "é",
        "¦"
      ],
      [
        "äººå·¥",
        "æĻºèĥ½"
      ],
      [
        "ç",
        "¯"
      ],
      [
        "åĨ",
        "ħ"
      ],
      [
        "æŃ",
        "£"
      ],
      [
        "æ",
        "¡"
      ],
      [
        "è",
        "¢"
      ],
      [
        "é",
        "ļ"
      ],
      [
        "å½",
        "ĵ"
      ],
      [
        "å¼",
        "Ģ"
      ],
      [
        "åİ",
        "»"
      ],
      [
        "é",
        "ķ"
      ],
      [
        "æģ",
        "¯"
      ],
      [
        "æł¹",
        "æį®"
      ],
      [
        "æ°",
        "´"
      ],
      [
        "æ",
        "·"
      ],
      [
        "æ¯",
        "Ķ"
      ],
      [
        "åı",
        "ĺ"
      ],
      [
        "åĨ",
        "Ļ"
      ],
      [
        "æ®",
        "µ"
      ],
      [
        "æĺ¯",
        "ä¸Ģ"
      ],
      [
        "å",
        "ŀ"
      ],
      [
        "é",
        "ĥ"
      ],
      [
        "ç³",
        "»"
      ],
      [
        "è",
        "·"
      ],
      [
        "åĬ",
        "©"
      ],
      [
        "è",
        "ģ"
      ],
      [
        "è¯",
        "´"
      ],
      [
        "åŃ¦",
        "ä¹ł"
      ],
      [
        "ç¨",
        "ĭ"
      ],
      [
        "åĪ",
        "¶"
      ],
      [
        "åħ",
        "·"
      ],
      [
        "ç¡",
        "®"
      ],
      [
        "å¸",
        "Ĥ"
      ],
      [
        "è®",
        "©"
      ],
      [
        "ä»",
        "Ģ"
      ],
      [
        "é",
        "Ľ"
      ],
      [
        "æĮ",
        "ģ"
      ],
      [
        "éģ",
        "ĵ"
      ],
      [
        "å",
        "Ŀ"
      ],
      [
        "çľ",
        "ĭ"
      ],
      [
        "ç¯",
        "ĩ"
      ],
      [
        "ç",
        "¼"
      ],
      [
        "äº",
        "§"
      ],
      [
        "èµ",
        "·"
      ],
      [
        "ç",
        "ĥ"
      ],
      [
        "ç»",
        "ĵ"
      ],
      [
        "å",
        "ķ"
      ],
      [
        "ä»Ģ",
        "ä¹Ī"
      ],
      [
        "æĬĢ",
        "æľ¯"
      ],
      [
        "å¸",
        "®"
      ],
      [
        "è",
        "º"
      ],
      [
        "åı",
        "Ĭ"
      ],
      [
        "è¯",
        "Ŀ"
      ],
      [
        "éĥ",
        "¨"
      ],
      [
        "çĽ",
        "®"
      ],
      [
        "éĤ",
        "£"
      ],
      [
        "è",
        "ĭ"
      ],
      [
        "ç",
        "¬"
      ],
      [
        "ä½",
        "ķ"
      ],
      [
        "éķ",
        "¿"
      ],
      [
        "éĿŀ",
        "å¸¸"
      ],
      [
        "è",
        "į"
      ],
      [
        "åĬ",
        "¡"
      ],
      [
        "ç®",
        "Ĺ"
      ],
      [
        "æ¯",
        "ı"
      ],
      [
        "èº",
        "«"
      ],
      [
        "ç",
        "ĭ"
      ],
      [
        "è¢",
        "«"
      ],
      [
        "åģ",
        "¥"
      ],
      [
        "ç§",
        "ĳ"
      ],
      [
        "æĹ",
        "¥"
      ],
      [
        "å°",
        "ĳ"
      ],
      [
        "å·",
        "±"
      ],
      [
        "åī",
        "į"
      ],
      [
        "å",
        "Ļ"
      ],
      [
        "æĭ",
        "¬"
      ],
      [
        "é",
        "ħ"
      ],
      [
        "éĢ",
        "Ĥ"
      ],
      [
        "åĸ",
        "ľ"
      ],
      [
        "èĩª",
        "å·±"
      ],
      [
        "åľ",
        "º"
      ],
      [
        "å®",
        "¹"
      ],
      [
        "åı",
        "Ĺ"
      ],
      [
        "åı¯",
        "èĥ½"
      ],
      [
        "æĹ",
        "ł"
      ],
      [
        "åĽ",
        "ŀ"
      ],
      [
        "æ¬",
        "¢"
      ],
      [
        "ä¿¡",
        "æģ¯"
      ],
      [
        "éĢ",
        "ī"
      ],
      [
        "ä»ĸ",
        "ä»¬"
      ],
      [
        "åĻ",
        "¨"
      ],
      [
        "åĮ",
        "»"
      ],
      [
        "äº",
        "¤"
      ],
      [
        "å¥½",
        "çļĦ"
      ],
      [
        "ä»",
        "£"
      ],
      [
        "åŀ",
        "ĭ"
      ],
      [
        "é¢",
        "Ĩ"
      ],
      [
        "åĪ",
        "«"
      ],
      [
        "è",
        "Ļ"
      ],
      [
        "ç",
        "ł"
      ],
      [
        "å¤",
        "Ħ"
      ],
      [
        "çĶµ",
        "å½±"
      ],
      [
        "çŃ",
        "Ķ"
      ],
      [
        "è",
        "¨"
      ],
      [
        "é",
        "¥"
      ],
      [
        "ç",
        "Ī"
      ],
      [
        "é",
        "ª"
      ],
      [
        "æ",
        "¶"
      ],
      [
        "ä½",
        "į"
      ],
      [
        "åĪ",
        "©"
      ],
      [
        "è´",
        "¨"
      ],
      [
        "æ",
        "»"
      ],
      [
        "è®",
        "®"
      ],
      [
        "é£",
        "İ"
      ],
      [
        "å¢",
        "ĥ"
      ],
      [
        "å¹",
        "³"
      ],
      [
        "ä¸",
        "¤"
      ],
      [
        "æ¡",
        "Ī"
      ],
      [
        "æī",
        "ĭ"
      ],
      [
        "ç",
        "Ĺ"
      ],
      [
        "å",
        "§"
      ],
      [
        "ä¾",
        "ĭ"
      ],
      [
        "è¿Ļ",
        "äºĽ"
      ],
      [
        "éĩį",
        "è¦ģ"
      ],
      [
        "éĢļ",
        "è¿ĩ"
      ],
      [
        "å¦Ĥ",
        "æŀľ"
      ],
      [
        "ä¸Ń",
        "çļĦ"
      ],
      [
        "é",
        "Ł"
      ],
      [
        "ä»",
        "»"
      ],
      [
        "åĵ",
        "į"
      ],
      [
        "ä»",
        "¶"
      ],
      [
        "çĶŁ",
        "æĪĲ"
      ],
      [
        "åĮħ",
        "æĭ¬"
      ],
      [
        "è®",
        "º"
      ],
      [
        "åŃ",
        "Ĺ"
      ],
      [
        "åı",
        "¸"
      ],
      [
        "åŁ",
        "Ł"
      ],
      [
        "åıĳ",
        "å±ķ"
      ],
      [
        "è¨",
        "Ģ"
      ],
      [
        "ç",
        "Ļ"
      ],
      [
        "åºĶ",
        "çĶ¨"
      ],
      [
        "å°ı",
        "æĺİ"
      ],
      [
        "å°",
        "±"
      ],
      [
        "æł",
        "ĩ"
      ],
      [
        "ç®",
        "Ģ"
      ],
      [
        "æ±",
        "Ĥ"
      ],
      [
        "æ²",
        "¡"
      ],
      [
        "åĪ",
        "Ľ"
      ],
      [
        "åį",
        "ķ"
      ],
      [
        "åĨ",
        "³"
      ],
      [
        "è§",
        "Ĥ"
      ],
      [
        "æĶ",
        "¹"
      ],
      [
        "æĶ",
        "¾"
      ],
      [
        "æİ",
        "¨"
      ],
      [
        "æ¸",
        "¸"
      ],
      [
        "è",
        "Ī"
      ],
      [
        "ç",
        "ģ"
      ],
      [
        "åı",
        "ª"
      ],
      [
        "æľ",
        "ª"
      ],
      [
        "è®",
        "¾"
      ],
      [
        "å½±",
        "åĵį"
      ],
      [
        "çŁ",
        "¥"
      ],
      [
        "åº",
        "·"
      ],
      [
        "ç»",
        "Ł"
      ],
      [
        "æĹ¶",
        "éĹ´"
      ],
      [
        "ä¸",
        "ī"
      ],
      [
        "æĢ",
        "»"
      ],
      [
        "å¸®",
        "åĬ©"
      ],
      [
        "ç",
        "¥"
      ],
      [
        "æľ",
        "Ł"
      ],
      [
        "é",
        "»"
      ],
      [
        "å",
        "£"
      ],
      [
        "åĸľ",
        "æ¬¢"
      ],
      [
        "æ",
        "º"
      ],
      [
        "ä¹",
        "Ĳ"
      ],
      [
        "èĬ",
        "Ĥ"
      ],
      [
        "åħ¬",
        "åı¸"
      ],
      [
        "æı",
        "ı"
      ],
      [
        "æķ",
        "Ī"
      ],
      [
        "è¯",
        "Ĩ"
      ],
      [
        "åģ¥",
        "åº·"
      ],
      [
        "æµ",
        "·"
      ],
      [
        "æ",
        "¨"
      ],
      [
        "å¼",
        "º"
      ],
      [
        "å¤",
        "Ł"
      ],
      [
        "è",
        "ĥ"
      ],
      [
        "ç»Ļ",
        "å®ļ"
      ],
      [
        "ç¤",
        "¾"
      ],
      [
        "æĸ",
        "Ń"
      ],
      [
        "åĩ",
        "ı"
      ],
      [
        "äºº",
        "ç±»"
      ],
      [
        "æ",
        "ĳ"
      ],
      [
        "æ³",
        "¨"
      ],
      [
        "æŀ",
        "ģ"
      ],
      [
        "å®",
        "ī"
      ],
      [
        "é¢Ĩ",
        "åŁŁ"
      ],
      [
        "çĶŁ",
        "æ´»"
      ],
      [
        "æ",
        "¼"
      ],
      [
        "æľ",
        "į"
      ],
      [
        "è¾",
        "¾"
      ],
      [
        "æ·",
        "±"
      ],
      [
        "çĶ",
        "±"
      ],
      [
        "æł",
        "·"
      ],
      [
        "çĸ",
        "Ĺ"
      ],
      [
        "åĽł",
        "æŃ¤"
      ],
      [
        "çİ¯",
        "å¢ĥ"
      ],
      [
        "ä¸į",
        "åĲĮ"
      ],
      [
        "æŃ",
        "¥"
      ],
      [
        "å·¥",
        "ä½ľ"
      ],
      [
        "æĺ",
        "Ł"
      ],
      [
        "è",
        "±"
      ],
      [
        "è",
        "Ħ"
      ],
      [
        "é",
        "©"
      ],
      [
        "éŁ",
        "³"
      ],
      [
        "å¤",
        "ª"
      ],
      [
        "æķ°",
        "æį®"
      ],
      [
        "æµ",
        "ģ"
      ],
      [
        "å½",
        "¢"
      ],
      [
        "åİ",
        "Ł"
      ],
      [
        "åģ",
        "ļ"
      ],
      [
        "ä¸",
        "ĸ"
      ],
      [
        "å·",
        "²"
      ],
      [
        "è",
        "İ"
      ],
      [
        "æıĲ",
        "åıĸ"
      ],
      [
        "æĻ",
        "¯"
      ],
      [
        "è½",
        "¦"
      ],
      [
        "åı",
        "ĭ"
      ],
      [
        "æıı",
        "è¿°"
      ],
      [
        "æ²¡",
        "æľī"
      ],
      [
        "å¸",
        "¦"
      ],
      [
        "æĪ",
        "·"
      ],
      [
        "åĽł",
        "ä¸º"
      ],
      [
        "å¯",
        "¼"
      ],
      [
        "è¿",
        "Ĳ"
      ],
      [
        "æ¬",
        "¡"
      ],
      [
        "åĳ",
        "ĺ"
      ],
      [
        "ç",
        "Į"
      ],
      [
        "ç",
        "²"
      ],
      [
        "é",
        "Ĵ"
      ],
      [
        "è",
        "ı"
      ],
      [
        "å»º",
        "è®®"
      ],
      [
        "æ¨",
        "¡"
      ],
      [
        "æĸ",
        "Ļ"
      ],
      [
        "éĶ",
        "®"
      ],
      [
        "æıĲ",
        "é«ĺ"
      ],
      [
        "è¯",
        "ķ"
      ],
      [
        "èĩª",
        "çĦ¶"
      ],
      [
        "å®ĥ",
        "ä»¬"
      ],
      [
        "æī",
        "¾"
      ],
      [
        "ãĢ",
        "ĭ"
      ],
      [
        "åŁ",
        "º"
      ],
      [
        "ãĢ",
        "Ĭ"
      ],
      [
        "å¦Ĥ",
        "ä½ķ"
      ],
      [
        "è®",
        "¤"
      ],
      [
        "åİ",
        "Ĩ"
      ],
      [
        "ä¹",
        "ī"
      ],
      [
        "åŁ",
        "İ"
      ],
      [
        "æĽ´",
        "åĬł"
      ],
      [
        "å¥",
        "¹"
      ],
      [
        "ä¼",
        "ł"
      ],
      [
        "æº",
        "Ĳ"
      ],
      [
        "ä¸»",
        "è¦ģ"
      ],
      [
        "åĲ",
        "Ħ"
      ],
      [
        "åħ³",
        "éĶ®"
      ],
      [
        "ç¤",
        "º"
      ],
      [
        "æĬ",
        "¤"
      ],
      [
        "æĭ",
        "©"
      ],
      [
        "æĮ",
        "ĩ"
      ],
      [
        "åºĶ",
        "è¯¥"
      ],
      [
        "åĲ",
        "ĳ"
      ],
      [
        "éĢ",
        "ł"
      ],
      [
        "æł",
        "¼"
      ],
      [
        "ç»",
        "Ħ"
      ],
      [
        "éĢī",
        "æĭ©"
      ],
      [
        "çķ",
        "Į"
      ],
      [
        "åħ",
        "ī"
      ],
      [
        "çļĦæ",
        "ķ"
      ],
      [
        "æĸ¹",
        "å¼ı"
      ],
      [
        "æĹ",
        "ħ"
      ],
      [
        "åĲĮ",
        "æĹ¶"
      ],
      [
        "è¿",
        "ĳ"
      ],
      [
        "èĥ½",
        "å¤Ł"
      ],
      [
        "ç¯ĩ",
        "æĸĩç«ł"
      ],
      [
        "èĲ",
        "½"
      ],
      [
        "ç©",
        "¶"
      ],
      [
        "è",
        "£"
      ],
      [
        "åĨħ",
        "å®¹"
      ],
      [
        "è°",
        "ĥ"
      ],
      [
        "äºº",
        "ä»¬"
      ],
      [
        "åı",
        "£"
      ],
      [
        "çĪ",
        "±"
      ],
      [
        "ï¼",
        "Ľ"
      ],
      [
        "è¯Ń",
        "è¨Ģ"
      ],
      [
        "è§",
        "Ĩ"
      ],
      [
        "åĳ",
        "³"
      ],
      [
        "ç©",
        "º"
      ],
      [
        "çº",
        "¢"
      ],
      [
        "åĮ",
        "º"
      ],
      [
        "èĢ",
        "ĥ"
      ],
      [
        "ä»",
        "·"
      ],
      [
        "åĲ",
        "Ĺ"
      ],
      [
        "åħ³",
        "äºİ"
      ],
      [
        "ç",
        "Ĭ"
      ],
      [
        "ç½",
        "ĳ"
      ],
      [
        "èĬ",
        "±"
      ],
      [
        "åĳ",
        "Ĭ"
      ],
      [
        "æĺ¯",
        "ä¸Ģä¸ª"
      ],
      [
        "ä¾ĭ",
        "å¦Ĥ"
      ],
      [
        "æľª",
        "æĿ¥"
      ],
      [
        "çĹ",
        "ħ"
      ],
      [
        "é",
        "¤"
      ],
      [
        "è®¡",
        "ç®Ĺ"
      ],
      [
        "å¿",
        "«"
      ],
      [
        "å¹",
        "¿"
      ],
      [
        "æľº",
        "åĻ¨"
      ],
      [
        "ç®",
        "¡"
      ],
      [
        "æĸ¹",
        "æ³ķ"
      ],
      [
        "æĸ¹",
        "éĿ¢"
      ],
      [
        "é¢",
        "Ħ"
      ],
      [
        "å¢",
        "ŀ"
      ],
      [
        "ï¼",
        "ī"
      ],
      [
        "åķ",
        "Ĩ"
      ],
      [
        "éª",
        "Į"
      ],
      [
        "é¤",
        "Ĳ"
      ],
      [
        "æĢ",
        "Ŀ"
      ],
      [
        "Ķ",
        "ç©¶"
      ],
      [
        "ç",
        "¦"
      ],
      [
        "ä¹",
        "¦"
      ],
      [
        "ä¸",
        "Ķ"
      ],
      [
        "åĩ",
        "Ĩ"
      ],
      [
        "å®",
        "Į"
      ],
      [
        "åĩ",
        "ł"
      ],
      [
        "é¦",
        "ĸ"
      ],
      [
        "é",
        "ĵ"
      ],
      [
        "å®",
        "¢"
      ],
      [
        "éĶ",
        "Ļ"
      ],
      [
        "åĪ°",
        "äºĨ"
      ],
      [
        "é¡",
        "¹"
      ],
      [
        "åħ¶",
        "ä»ĸ"
      ],
      [
        "ä¼",
        "ĺ"
      ],
      [
        "è¶",
        "Ĭ"
      ],
      [
        "ä»¥",
        "åıĬ"
      ],
      [
        "ä¸»",
        "é¢ĺ"
      ],
      [
        "é",
        "¸"
      ],
      [
        "å¼",
        "ķ"
      ],
      [
        "éĩ",
        "ĳ"
      ],
      [
        "è®",
        "¸"
      ],
      [
        "è¯",
        "Ħ"
      ],
      [
        "æ",
        "ļ"
      ],
      [
        "æ¸",
        "ħ"
      ],
      [
        "åħ",
        "Ī"
      ],
      [
        "ç´",
        "ł"
      ],
      [
        "åĬ",
        "Ł"
      ],
      [
        "æ",
        "£"
      ],
      [
        "å¤",
        "ĩ"
      ],
      [
        "è½",
        "»"
      ],
      [
        "æİ",
        "¥"
      ],
      [
        "è§",
        "ī"
      ],
      [
        "åĪ",
        "Ĺ"
      ],
      [
        "ï¼",
        "Ī"
      ],
      [
        "è¯",
        "»"
      ],
      [
        "èµ",
        "Ħ"
      ],
      [
        "æĪ",
        "ĺ"
      ],
      [
        "è",
        "Į"
      ],
      [
        "åĪĨ",
        "ç±»"
      ],
      [
        "å§",
        "ĭ"
      ],
      [
        "ä»",
        "Ĭ"
      ],
      [
        "ä¸ª",
        "äºº"
      ],
      [
        "éĺ",
        "³"
      ],
      [
        "çŁ",
        "Ń"
      ],
      [
        "èĩ",
        "´"
      ],
      [
        "åŃ",
        "ĺ"
      ],
      [
        "åĵ",
        "ª"
      ],
      [
        "æµ",
        "ĭ"
      ],
      [
        "æķ",
        "Ļ"
      ],
      [
        "æĢ",
        "ģ"
      ],
      [
        "æ¸",
        "©"
      ],
      [
        "ç»",
        "Ń"
      ],
      [
        "åĢ",
        "Ļ"
      ],
      [
        "ï¼",
        "ģ"
      ],
      [
        "æľ",
        "ĭ"
      ],
      [
        "æŀ",
        "Ĳ"
      ],
      [
        "ç¼",
        "ĸ"
      ],
      [
        "ä¸ĸ",
        "çķĮ"
      ],
      [
        "åħ",
        "±"
      ],
      [
        "ä½Ĩ",
        "æĺ¯"
      ],
      [
        "åĲ",
        "«"
      ],
      [
        "æľ",
        "Ī"
      ],
      [
        "èı",
        "ľ"
      ],
      [
        "æľĭ",
        "åıĭ"
      ],
      [
        "çº",
        "¦"
      ],
      [
        "åħ",
        "ĭ"
      ],
      [
        "ç§",
        "¯"
      ],
      [
        "ç«",
        "ĭ"
      ],
      [
        "çİ",
        "ĩ"
      ],
      [
        "åĽŀ",
        "çŃĶ"
      ],
      [
        "æĸĩ",
        "åĮĸ"
      ],
      [
        "åĪĨ",
        "æŀĲ"
      ],
      [
        "å¤Ħ",
        "çĲĨ"
      ],
      [
        "åı",
        "²"
      ],
      [
        "ç»",
        "Ĩ"
      ],
      [
        "çļĦæ",
        "ĥ"
      ],
      [
        "ä¸Ģ",
        "ä¸ĭ"
      ],
      [
        "æĶ",
        "¯"
      ],
      [
        "åĩı",
        "å°ĳ"
      ],
      [
        "åŁİ",
        "å¸Ĥ"
      ],
      [
        "è±",
        "¡"
      ],
      [
        "å±",
        "±"
      ],
      [
        "ä¹ĭ",
        "ä¸Ģ"
      ],
      [
        "è¶",
        "³"
      ],
      [
        "è¿Ļ",
        "ç¯ĩæĸĩç«ł"
      ],
      [
        "ä¸Ń",
        "åĽ½"
      ],
      [
        "æķ",
        "´"
      ],
      [
        "åĲ",
        "¦"
      ],
      [
        "å¤",
        "į"
      ],
      [
        "ç¬",
        "¬"
      ],
      [
        "åĪ",
        "Ļ"
      ],
      [
        "æ»",
        "¡"
      ],
      [
        "åĨ",
        "µ"
      ],
      [
        "ä¿Ŀ",
        "æĬ¤"
      ],
      [
        "çł",
        "Ķç©¶"
      ],
      [
        "ĺ",
        "è¦ģ"
      ],
      [
        "è",
        "ĳ"
      ],
      [
        "åħ",
        "ĥ"
      ],
      [
        "è§",
        "Ĵ"
      ],
      [
        "ç¥",
        "ŀ"
      ],
      [
        "é¥",
        "®"
      ],
      [
        "2",
        "0"
      ],
      [
        "å·²",
        "ç»ı"
      ],
      [
        "å",
        "ĥ"
      ],
      [
        "æľ",
        "Ľ"
      ],
      [
        "è®¸",
        "å¤ļ"
      ],
      [
        "æİ",
        "¢"
      ],
      [
        "äºĨ",
        "ä¸Ģ"
      ],
      [
        "èĩªå·±",
        "çļĦ"
      ],
      [
        "ä¸¤",
        "ä¸ª"
      ],
      [
        "ç³",
        "ĸ"
      ],
      [
        "éĩ",
        "ĩ"
      ],
      [
        "åı",
        "į"
      ],
      [
        "ç",
        "¿"
      ],
      [
        "è°",
        "¢"
      ],
      [
        "èĢ",
        "ģ"
      ],
      [
        "äº§",
        "åĵģ"
      ],
      [
        "çº",
        "¿"
      ],
      [
        "åĪ",
        "Ĵ"
      ],
      [
        "è¾",
        "ĵ"
      ],
      [
        "çľ",
        "Ł"
      ],
      [
        "åĮ»",
        "çĸĹ"
      ],
      [
        "æŃ¤",
        "å¤ĸ"
      ],
      [
        "çĭ",
        "Ĺ"
      ],
      [
        "ç³»",
        "ç»Ł"
      ],
      [
        "æĽ´",
        "å¤ļ"
      ],
      [
        "è§",
        "Ħ"
      ],
      [
        "å°",
        "½"
      ],
      [
        "éĢ",
        "Ł"
      ],
      [
        "å",
        "Ķ"
      ],
      [
        "ç",
        "ħ"
      ],
      [
        "è¶",
        "£"
      ],
      [
        "è·",
        "¯"
      ],
      [
        "éĻ",
        "©"
      ],
      [
        "å¥",
        "³"
      ],
      [
        "åı",
        "Ĥ"
      ],
      [
        "çļĦ",
        "äºº"
      ],
      [
        "èģ",
        "Ķ"
      ],
      [
        "åĲ",
        "ĥ"
      ],
      [
        "ä¿Ŀ",
        "æĮģ"
      ],
      [
        "ä»",
        "½"
      ],
      [
        "æĸ",
        "¯"
      ],
      [
        "è",
        "¥"
      ],
      [
        "åħ¨",
        "çĲĥ"
      ],
      [
        "æĺ¯ä¸Ģ",
        "ç§į"
      ],
      [
        "æĬ",
        "¥"
      ],
      [
        "æĺ",
        "ĵ"
      ],
      [
        "çĽ",
        "´"
      ],
      [
        "åĬ¨",
        "çī©"
      ],
      [
        "Â",
        "·"
      ],
      [
        "æľį",
        "åĬ¡"
      ],
      [
        "çĻ",
        "½"
      ],
      [
        "å¤",
        "´"
      ],
      [
        "åĢ",
        "¼"
      ],
      [
        "è¥",
        "¿"
      ],
      [
        "æĸ",
        "½"
      ],
      [
        "è§£",
        "åĨ³"
      ],
      [
        "æİ",
        "Ĵ"
      ],
      [
        "æĪĲ",
        "ä¸º"
      ],
      [
        "ħ",
        "äºĭ"
      ],
      [
        "åĨ",
        "į"
      ],
      [
        "åĥ",
        "ı"
      ],
      [
        "çĥ",
        "Ń"
      ],
      [
        "çİ¯",
        "ä¿Ŀ"
      ],
      [
        "ä»",
        "ĭ"
      ],
      [
        "åĽ",
        "¾"
      ],
      [
        "æ´»",
        "åĬ¨"
      ],
      [
        "å",
        "²"
      ],
      [
        "éļ",
        "¾"
      ],
      [
        "ä¹",
        "°"
      ],
      [
        "ä¾",
        "¿"
      ],
      [
        "åĳ",
        "¨"
      ],
      [
        "çļĦ",
        "ä¸Ģ"
      ],
      [
        "æŁ",
        "¥"
      ],
      [
        "æĪĸ",
        "èĢħ"
      ],
      [
        "èİ",
        "·"
      ],
      [
        "è¾",
        "ĥ"
      ],
      [
        "èĻ",
        "ĳ"
      ],
      [
        "æŀ",
        "Ħ"
      ],
      [
        "æĿ",
        "¡"
      ],
      [
        "ç¤¾",
        "ä¼ļ"
      ],
      [
        "å®ī",
        "åħ¨"
      ],
      [
        "1",
        "0"
      ],
      [
        "è¿Ĳ",
        "åĬ¨"
      ],
      [
        "è§",
        "ģ"
      ],
      [
        "çī",
        "ĩ"
      ],
      [
        "åĲ",
        "¬"
      ],
      [
        "èº«",
        "ä½ĵ"
      ],
      [
        "ç»Ļ",
        "æĪĳ"
      ],
      [
        "è¯",
        "Ĺ"
      ],
      [
        "åıĳ",
        "çİ°"
      ],
      [
        "èĩ",
        "³"
      ],
      [
        "æ",
        "Ĳ"
      ],
      [
        "çļĦæĥ",
        "ħ"
      ],
      [
        "æ¼",
        "Ķ"
      ],
      [
        "éħ",
        "į"
      ],
      [
        "éļ",
        "ı"
      ],
      [
        "åıĺ",
        "åĮĸ"
      ],
      [
        "çİ°",
        "åľ¨"
      ],
      [
        "ãĢĤ",
        "âĢĿ"
      ],
      [
        "æī",
        "ĵ"
      ],
      [
        "ç§ĳ",
        "æĬĢ"
      ],
      [
        "åħ¶",
        "ä¸Ń"
      ],
      [
        "ç»",
        "ĥ"
      ],
      [
        "åº",
        "ı"
      ],
      [
        "æĶ",
        "¶"
      ],
      [
        "çĬ",
        "¶"
      ],
      [
        "è®¤",
        "ä¸º"
      ],
      [
        "å¼",
        "ł"
      ],
      [
        "èĤ",
        "²"
      ],
      [
        "å¤©",
        "æ°Ķ"
      ],
      [
        "ä¸",
        "½"
      ],
      [
        "ç´",
        "¢"
      ],
      [
        "éĤ£",
        "ä¹Ī"
      ],
      [
        "æĪĳä»¬",
        "çļĦ"
      ],
      [
        "åĳ",
        "½"
      ],
      [
        "ä¹ĭ",
        "éĹ´"
      ],
      [
        "äº",
        "«"
      ],
      [
        "æĬ",
        "Ĭ"
      ],
      [
        "ç²",
        "¾"
      ],
      [
        "è®",
        "°"
      ],
      [
        "æ¶",
        "Ī"
      ],
      [
        "¹",
        "æŀľ"
      ],
      [
        "æ",
        "ħ"
      ],
      [
        "åħ",
        "ħ"
      ],
      [
        "èĥ½",
        "åĬĽ"
      ],
      [
        "çĽ¸",
        "åħ³"
      ],
      [
        "èĭ",
        "¹æŀľ"
      ],
      [
        "äº",
        "Į"
      ],
      [
        "ä½ł",
        "çļĦ"
      ],
      [
        "åİĨ",
        "åı²"
      ],
      [
        "æĶ",
        "¿"
      ],
      [
        "åĲ",
        "¸"
      ],
      [
        "å¾Ī",
        "å¤ļ"
      ],
      [
        "åı",
        "¤"
      ],
      [
        "çŃ",
        "ĸ"
      ],
      [
        "å",
        "¡"
      ],
      [
        "å¸¦",
        "æĿ¥"
      ],
      [
        "ç",
        "ı"
      ],
      [
        "æ",
        "¤"
      ],
      [
        "æĳ",
        "ĺè¦ģ"
      ],
      [
        "åĽ",
        "Ń"
      ],
      [
        "åħ·",
        "æľī"
      ],
      [
        "è´",
        "Ń"
      ],
      [
        "ç",
        "¢"
      ],
      [
        "åħ",
        "´"
      ],
      [
        "éĺ",
        "Ł"
      ],
      [
        "å¸",
        "Ī"
      ],
      [
        "ä½",
        "İ"
      ],
      [
        "çĮ",
        "«"
      ],
      [
        "å¤",
        "±"
      ],
      [
        "éĹ",
        "¨"
      ],
      [
        "æ¬",
        "¾"
      ],
      [
        "ç»",
        "´"
      ],
      [
        "æ²",
        "»"
      ],
      [
        "åį",
        "³"
      ],
      [
        "ç»Ļå®ļ",
        "çļĦ"
      ],
      [
        "éĹ",
        "»"
      ],
      [
        "ç§ĳ",
        "åŃ¦"
      ],
      [
        "ç§",
        "°"
      ],
      [
        "å¸",
        "ĥ"
      ],
      [
        "æ",
        "¢"
      ],
      [
        "çĭ",
        "¬"
      ],
      [
        "åħ",
        "į"
      ],
      [
        "æŃ",
        "Į"
      ],
      [
        "è¯",
        "ī"
      ],
      [
        "éĩ",
        "Ĭ"
      ],
      [
        "äº",
        "Ĵ"
      ],
      [
        "èį",
        "Ĳ"
      ],
      [
        "å",
        "ĭ"
      ],
      [
        "éŁ³",
        "ä¹Ĳ"
      ],
      [
        "ç»Ļ",
        "åĩº"
      ],
      [
        "å°",
        "Ŀ"
      ],
      [
        "çļĦæ",
        "Ħ"
      ],
      [
        "¦",
        "Ĥ"
      ],
      [
        "çŃĶ",
        "æ¡Ī"
      ],
      [
        "æī",
        "į"
      ],
      [
        "æĿ",
        "Ĳ"
      ],
      [
        "è¿Ļ",
        "ç§į"
      ],
      [
        "è®¾",
        "è®¡"
      ],
      [
        "ç§¯",
        "æŀģ"
      ],
      [
        "ç»",
        "į"
      ],
      [
        "å¼Ģ",
        "å§ĭ"
      ],
      [
        "ä»»",
        "åĬ¡"
      ],
      [
        "èĲ",
        "¥"
      ],
      [
        "æĿ",
        "¾"
      ],
      [
        "äºĨ",
        "è§£"
      ],
      [
        "éĽ",
        "Ĩ"
      ],
      [
        "è¡¨",
        "è¾¾"
      ],
      [
        "ä»ĭ",
        "ç»į"
      ],
      [
        "ä¸Ń",
        "æıĲåıĸ"
      ],
      [
        "åı¥",
        "è¯Ŀ"
      ],
      [
        "çļĦ",
        "å½±åĵį"
      ],
      [
        "å¯¼",
        "èĩ´"
      ],
      [
        "å¯",
        "Į"
      ],
      [
        "è¯",
        "¯"
      ],
      [
        "åŃ",
        "£"
      ],
      [
        "å¿",
        "ħ"
      ],
      [
        "å",
        "¨"
      ],
      [
        "è",
        "Ľ"
      ],
      [
        "å¯¹",
        "äºİ"
      ],
      [
        "æ¨¡",
        "åŀĭ"
      ],
      [
        "åħ·",
        "ä½ĵ"
      ],
      [
        "è®¡ç®Ĺ",
        "æľº"
      ],
      [
        "èĭ",
        "±"
      ],
      [
        "çĶ",
        "·"
      ],
      [
        "æĥħ",
        "æĦŁ"
      ],
      [
        "æľºåĻ¨",
        "åŃ¦ä¹ł"
      ],
      [
        "çĲĨ",
        "è§£"
      ],
      [
        "æİ¨",
        "èįĲ"
      ],
      [
        "çļĦæ",
        "Ĭ"
      ],
      [
        "è½",
        "¬"
      ],
      [
        "å®ŀ",
        "çİ°"
      ],
      [
        "æľĢ",
        "è¿ĳ"
      ],
      [
        "æĸ°",
        "çļĦ"
      ],
      [
        "æĺ¯",
        "åĲ¦"
      ],
      [
        "éĢļ",
        "å¸¸"
      ],
      [
        "åı",
        "·"
      ],
      [
        "åį",
        "ĩ"
      ],
      [
        "åİ",
        "ĭ"
      ],
      [
        "è®",
        "¨"
      ],
      [
        "é¦",
        "Ļ"
      ],
      [
        "éĻ",
        "¤"
      ],
      [
        "èµ",
        "Ľ"
      ],
      [
        "è®",
        "²"
      ],
      [
        "åĬ",
        "¿"
      ],
      [
        "ä¸",
        "ĵ"
      ],
      [
        "ä»Ĭ",
        "å¤©"
      ],
      [
        "æĽ´",
        "å¥½"
      ],
      [
        "èĤ",
        "ī"
      ],
      [
        "é",
        "²"
      ],
      [
        "åĮ",
        "Ĺ"
      ],
      [
        "ä¸į",
        "æĸŃ"
      ],
      [
        "åĲĦ",
        "ç§į"
      ],
      [
        "ä¿",
        "®"
      ],
      [
        "æĿ",
        "İ"
      ],
      [
        "è´",
        "¹"
      ],
      [
        "é»",
        "ĳ"
      ],
      [
        "éĶ",
        "Ģ"
      ],
      [
        "æ°",
        "ĳ"
      ],
      [
        "åľ°",
        "çĲĥ"
      ],
      [
        "è®¡",
        "åĪĴ"
      ],
      [
        "å¸Ĥ",
        "åľº"
      ],
      [
        "è£",
        "ħ"
      ],
      [
        "åį",
        "İ"
      ],
      [
        "æĪ",
        "ı"
      ],
      [
        "åį",
        "ģ"
      ],
      [
        "åħ³éĶ®",
        "è¯į"
      ],
      [
        "åĳĬ",
        "è¯ī"
      ],
      [
        "è¯",
        "ģ"
      ],
      [
        "æŁ",
        "ĵ"
      ],
      [
        "åħ",
        "»"
      ],
      [
        "çļĦ",
        "éĹ®é¢ĺ"
      ],
      [
        "æīĢ",
        "æľī"
      ],
      [
        "ä¸Ģ",
        "æ®µ"
      ],
      [
        "é©",
        "¬"
      ],
      [
        "è",
        "ħ"
      ],
      [
        "åĸ",
        "Ħ"
      ],
      [
        "åĽ",
        "´"
      ],
      [
        "æīĢ",
        "ä»¥"
      ],
      [
        "çĶ¨",
        "æĪ·"
      ],
      [
        "æ³¨",
        "æĦı"
      ],
      [
        "èī",
        "º"
      ],
      [
        "æĻ",
        "ļ"
      ],
      [
        "ç»",
        "Ī"
      ],
      [
        "æĪĳ",
        "çļĦ"
      ],
      [
        "åįķ",
        "è¯į"
      ],
      [
        "å¯",
        "»"
      ],
      [
        "è¯Ĩ",
        "åĪ«"
      ],
      [
        "éĢĤ",
        "åĲĪ"
      ],
      [
        "å¤",
        "ı"
      ],
      [
        "ä¸Ģ",
        "èµ·"
      ],
      [
        "æİ",
        "§"
      ],
      [
        "ç¦",
        "»"
      ],
      [
        "å¸",
        "Į"
      ],
      [
        "æŃ£",
        "åľ¨"
      ],
      [
        "ç",
        "ª"
      ],
      [
        "A",
        "I"
      ],
      [
        "æĪĳä»¬",
        "åı¯ä»¥"
      ],
      [
        "èĳ",
        "Ĺ"
      ],
      [
        "å¾",
        "ĭ"
      ],
      [
        "éĻ",
        "ħ"
      ],
      [
        "éĺ",
        "²"
      ],
      [
        "æĸ°",
        "éĹ»"
      ],
      [
        "æ¯Ķ",
        "å¦Ĥ"
      ],
      [
        "è¶",
        "ħ"
      ],
      [
        "ä»ĸ",
        "çļĦ"
      ],
      [
        "åĽ",
        "Ľ"
      ],
      [
        "è¿",
        "ľ"
      ],
      [
        "å¤ª",
        "éĺ³"
      ],
      [
        "åŃ",
        "©"
      ],
      [
        "è¦ģ",
        "æ±Ĥ"
      ],
      [
        "çŁ¥",
        "éģĵ"
      ],
      [
        "çļĦ",
        "æĺ¯"
      ],
      [
        "æĹł",
        "æ³ķ"
      ],
      [
        "å°",
        "Ķ"
      ],
      [
        "å¹¶",
        "ä¸Ķ"
      ],
      [
        "ä¸Ģ",
        "ç§į"
      ],
      [
        "å·",
        "§"
      ],
      [
        "æĦŁ",
        "åĪ°"
      ],
      [
        "æŀ",
        "Ĺ"
      ],
      [
        "æ³",
        "Ľ"
      ],
      [
        "å£",
        "°"
      ],
      [
        "æ",
        "Ĵ"
      ],
      [
        "èµ",
        "°"
      ],
      [
        "åĳ",
        "¢"
      ],
      [
        "åħ³",
        "ç³»"
      ],
      [
        "æŁ",
        "Ĳ"
      ],
      [
        "å°ı",
        "è¯´"
      ],
      [
        "çĦ¶",
        "åĲİ"
      ],
      [
        "åı",
        "¦"
      ],
      [
        "ä»",
        "ħ"
      ],
      [
        "ï¼ļ",
        "âĢľ"
      ],
      [
        "è´",
        "Ł"
      ],
      [
        "æĹħ",
        "æ¸¸"
      ],
      [
        "è¿ĩ",
        "ç¨ĭ"
      ],
      [
        "åį",
        "Ĺ"
      ],
      [
        "æ¯ı",
        "ä¸ª"
      ],
      [
        "å£",
        "«"
      ],
      [
        "ç½",
        "®"
      ],
      [
        "åŃĺ",
        "åľ¨"
      ],
      [
        "æĢ»",
        "ç»ĵ"
      ],
      [
        "å¤§",
        "çļĦ"
      ],
      [
        "åİ",
        "ħ"
      ],
      [
        "èģ",
        "Į"
      ],
      [
        "è§£",
        "éĩĬ"
      ],
      [
        "èĢĥ",
        "èĻĳ"
      ],
      [
        "å¾",
        "·"
      ],
      [
        "æĪĲ",
        "åĬŁ"
      ],
      [
        "æĭ",
        "ī"
      ],
      [
        "è´¨",
        "éĩı"
      ],
      [
        "è¾",
        "¹"
      ],
      [
        "æĹ",
        "©"
      ],
      [
        "çļĦæ",
        "°"
      ],
      [
        "ç®¡",
        "çĲĨ"
      ],
      [
        "éĻ",
        "į"
      ],
      [
        "èĽ",
        "ĭ"
      ],
      [
        "çļĦæ",
        "Ģ"
      ],
      [
        "åŃ¦",
        "çĶŁ"
      ],
      [
        "æĺ",
        "¾"
      ],
      [
        "ĳ",
        "æĪĺ"
      ],
      [
        "å",
        "Ħ"
      ],
      [
        "æĪ",
        "¿"
      ],
      [
        "çŃī",
        "çŃī"
      ],
      [
        "è",
        "ŀ"
      ],
      [
        "ª",
        "æĸ½"
      ],
      [
        "æ®µ",
        "èĲ½"
      ],
      [
        "è¡Į",
        "ä¸º"
      ],
      [
        "ç¾İ",
        "åĽ½"
      ],
      [
        "ä¸",
        "ľ"
      ],
      [
        "æĪĳ",
        "æĥ³"
      ],
      [
        "éĶĻ",
        "è¯¯"
      ],
      [
        "åĮ»",
        "çĶŁ"
      ],
      [
        "å¢ŀ",
        "åĬł"
      ],
      [
        "ä¸Ģ",
        "ç¯ĩ"
      ],
      [
        "è¾",
        "ĳ"
      ],
      [
        "ç",
        "Ĩ"
      ],
      [
        "ä¼",
        "¼"
      ],
      [
        "å°Ŀ",
        "è¯ķ"
      ],
      [
        "äº",
        "Ķ"
      ],
      [
        "çħ",
        "§"
      ],
      [
        "å¯¹",
        "è¯Ŀ"
      ],
      [
        "å®Į",
        "æĪĲ"
      ],
      [
        "æ",
        "¦Ĥ"
      ],
      [
        "å¯",
        "Ĩ"
      ],
      [
        "çİ",
        "©"
      ],
      [
        "æĺ¯",
        "ä»Ģä¹Ī"
      ],
      [
        "å¹¿",
        "æ³Ľ"
      ],
      [
        "ç±",
        "³"
      ],
      [
        "ä¸ĭ",
        "éĿ¢"
      ],
      [
        "ä½ľ",
        "ä¸º"
      ],
      [
        "åĪ©",
        "çĶ¨"
      ],
      [
        "çĶ",
        "»"
      ],
      [
        "è¿Ļ",
        "æ®µ"
      ],
      [
        "ä¸įåĲĮ",
        "çļĦ"
      ],
      [
        "çģ",
        "«"
      ],
      [
        "èĩª",
        "åĬ¨"
      ],
      [
        "æľĢ",
        "åĲİ"
      ],
      [
        "é¥®",
        "é£Ł"
      ],
      [
        "æĭ",
        "¥"
      ],
      [
        "æļ",
        "ĸ"
      ],
      [
        "çİ",
        "ĭ"
      ],
      [
        "éģ",
        "¿"
      ],
      [
        "åĴ",
        "ĸ"
      ],
      [
        "å½ĵ",
        "çĦ¶"
      ],
      [
        "æ",
        "¿"
      ],
      [
        "é£Ł",
        "çī©"
      ],
      [
        "è®",
        "Ń"
      ],
      [
        "çļĦ",
        "åıĳå±ķ"
      ],
      [
        "å®",
        "³"
      ],
      [
        "å¾Ĺ",
        "åĪ°"
      ],
      [
        "æµ",
        "İ"
      ],
      [
        "åı",
        "°"
      ],
      [
        "æĽ´å¥½",
        "åľ°"
      ],
      [
        "åĽ",
        "¢"
      ],
      [
        "ç¡®",
        "ä¿Ŀ"
      ],
      [
        "å¿",
        "µ"
      ],
      [
        "åı¯èĥ½",
        "ä¼ļ"
      ],
      [
        "çļĦ",
        "åľ°"
      ],
      [
        "çļĦæķ",
        "°"
      ],
      [
        "ä¼",
        "ģ"
      ],
      [
        "çļĦ",
        "ä¿¡æģ¯"
      ],
      [
        "ãĢĤ",
        "\\"
      ],
      [
        "ä»»",
        "ä½ķ"
      ],
      [
        "æ°Ķ",
        "åĢĻ"
      ],
      [
        "äº",
        "ļ"
      ],
      [
        "ç®Ĺ",
        "æ³ķ"
      ],
      [
        "åķ",
        "¡"
      ],
      [
        "èŀ",
        "į"
      ],
      [
        "çļĦ",
        "åºĶçĶ¨"
      ],
      [
        "äº",
        "¬"
      ],
      [
        "ä¸į",
        "æĺ¯"
      ],
      [
        "æłĩ",
        "é¢ĺ"
      ],
      [
        "äº§",
        "çĶŁ"
      ],
      [
        "éĻ",
        "Ĳ"
      ],
      [
        "æĤ¨",
        "çļĦ"
      ],
      [
        "åĴĸ",
        "åķ¡"
      ],
      [
        "æĥħ",
        "åĨµ"
      ],
      [
        "æ´",
        "ģ"
      ],
      [
        "æ",
        "ĵ"
      ],
      [
        "å®",
        "¤"
      ],
      [
        "å¸Į",
        "æľĽ"
      ],
      [
        "æķ",
        "ħäºĭ"
      ],
      [
        "èį",
        "ī"
      ],
      [
        "èİ·",
        "å¾Ĺ"
      ],
      [
        "æį",
        "¢"
      ],
      [
        "è¿ĺ",
        "æľī"
      ],
      [
        "å",
        "ł"
      ],
      [
        "éĽ",
        "¨"
      ],
      [
        "äºº",
        "çļĦ"
      ],
      [
        "ç»",
        "ľ"
      ],
      [
        "äº¤",
        "éĢļ"
      ],
      [
        "æĢ",
        "İ"
      ],
      [
        "å·",
        "´"
      ],
      [
        "è¾ĵ",
        "åħ¥"
      ],
      [
        "çĽ®",
        "æłĩ"
      ],
      [
        "åĦ",
        "¿"
      ],
      [
        "ç»ı",
        "æµİ"
      ],
      [
        "è¿Ļ",
        "æł·"
      ],
      [
        "çĶŁæĪĲ",
        "ä¸Ģä¸ª"
      ],
      [
        "å¹",
        "²"
      ],
      [
        "é»",
        "Ħ"
      ],
      [
        "è¡¨",
        "ç¤º"
      ],
      [
        "é¦ĸ",
        "åħĪ"
      ],
      [
        "çĶ¨",
        "äºİ"
      ],
      [
        "åı¯ä»¥",
        "å¸®åĬ©"
      ],
      [
        "éħ",
        "Ĵ"
      ],
      [
        "è¡",
        "£"
      ],
      [
        "é£",
        "ŀ"
      ],
      [
        "éĥ½",
        "æĺ¯"
      ],
      [
        "ç³ĸ",
        "æŀľ"
      ],
      [
        "ä¼",
        "Ĺ"
      ],
      [
        "å¾",
        "ģ"
      ],
      [
        "æľī",
        "æķĪ"
      ],
      [
        "é¤Ĳ",
        "åİħ"
      ],
      [
        "çļĦ",
        "ä¸»è¦ģ"
      ],
      [
        "ä½ł",
        "åı¯ä»¥"
      ],
      [
        "éĺ",
        "ħ"
      ],
      [
        "åĮħ",
        "åĲ«"
      ],
      [
        "çī",
        "Ľ"
      ],
      [
        "çļĦæ",
        "ł"
      ],
      [
        "ç©",
        "¿"
      ],
      [
        "åº",
        "Ĺ"
      ],
      [
        "æĹħ",
        "è¡Į"
      ],
      [
        "æī¾",
        "åĪ°"
      ],
      [
        "å¾",
        "Ģ"
      ],
      [
        "æķĻ",
        "èĤ²"
      ],
      [
        "å±",
        "ŀ"
      ],
      [
        "åº",
        "Ń"
      ],
      [
        "ç»ĵ",
        "æŀľ"
      ],
      [
        "ç®Ģ",
        "åįķ"
      ],
      [
        "¡",
        "æŁĵ"
      ],
      [
        "éľĢ",
        "æ±Ĥ"
      ],
      [
        "æ¸¸",
        "æĪı"
      ],
      [
        "æ¿",
        "Ģ"
      ],
      [
        "çļĦ",
        "éĩįè¦ģ"
      ],
      [
        "éĥ¨",
        "åĪĨ"
      ],
      [
        "é",
        "º"
      ],
      [
        "åĳĬè¯ī",
        "æĪĳ"
      ],
      [
        "ä½¿",
        "åħ¶"
      ],
      [
        "åĿ",
        "ĩ"
      ],
      [
        "éģ¿",
        "åħį"
      ],
      [
        "éĩĩ",
        "åıĸ"
      ],
      [
        "æ",
        "©"
      ],
      [
        "å±",
        "ħ"
      ],
      [
        "æ",
        "½"
      ],
      [
        "è§Ĥ",
        "çĤ¹"
      ],
      [
        "åĩł",
        "ä¸ª"
      ],
      [
        "æİ",
        "ªæĸ½"
      ],
      [
        "ç½ĳ",
        "ç»ľ"
      ],
      [
        "åĪ¶",
        "ä½ľ"
      ],
      [
        "çī",
        "Į"
      ],
      [
        "åĩĨ",
        "ç¡®"
      ],
      [
        "ä¹Ł",
        "æĺ¯"
      ],
      [
        "æľī",
        "åħ³"
      ],
      [
        "å¾",
        "®"
      ],
      [
        "ä»",
        "¤"
      ],
      [
        "äº",
        "ī"
      ],
      [
        "æĮģ",
        "ç»Ń"
      ],
      [
        "æĶ¯",
        "æĮģ"
      ],
      [
        "èĥ½",
        "æºĲ"
      ],
      [
        "ä¸",
        "ĩ"
      ],
      [
        "ä½ĵ",
        "éªĮ"
      ],
      [
        "å",
        "ª"
      ],
      [
        "é",
        "±"
      ],
      [
        "èµ·",
        "æĿ¥"
      ],
      [
        "äºĨ",
        "ä¸Ģä¸ª"
      ],
      [
        "é±",
        "¼"
      ],
      [
        "ä½ľ",
        "çĶ¨"
      ],
      [
        "åī",
        "§"
      ],
      [
        "ä¼ģ",
        "ä¸ļ"
      ],
      [
        "è¡¨",
        "çİ°"
      ],
      [
        "éĩįè¦ģ",
        "çļĦ"
      ],
      [
        "ç«",
        "Ļ"
      ],
      [
        "ç»",
        "¿"
      ],
      [
        "ä¸į",
        "èĥ½"
      ],
      [
        "çĽ",
        "Ĭ"
      ],
      [
        "é",
        "¼"
      ],
      [
        "ç",
        "ĳ"
      ],
      [
        "æł",
        "ĳ"
      ],
      [
        "åıĳ",
        "çĶŁ"
      ],
      [
        "ä»ĸä»¬",
        "çļĦ"
      ],
      [
        "ä¹Ł",
        "åı¯ä»¥"
      ],
      [
        "0",
        "0"
      ],
      [
        "è",
        "ĵ"
      ],
      [
        "èī",
        "¯"
      ],
      [
        "éĺħ",
        "è¯»"
      ],
      [
        "åĪ",
        "ĩ"
      ],
      [
        "å°ı",
        "çº¢"
      ],
      [
        "èĩªçĦ¶",
        "è¯Ńè¨Ģ"
      ],
      [
        "æ¤",
        "į"
      ],
      [
        "¾",
        "çĹħ"
      ],
      [
        "é",
        "¾"
      ],
      [
        "çĶ±",
        "äºİ"
      ],
      [
        "çİ°",
        "ä»£"
      ],
      [
        "ä¸ī",
        "ä¸ª"
      ],
      [
        "å¤",
        "ľ"
      ],
      [
        "åĵª",
        "äºĽ"
      ],
      [
        "åĪ",
        "¤"
      ],
      [
        "ç¤¾",
        "äº¤"
      ],
      [
        "å®",
        "Ŀ"
      ],
      [
        "å¾",
        "ħ"
      ],
      [
        "ç¬",
        "¦"
      ],
      [
        "æ²",
        "¹"
      ],
      [
        "æĭ¥",
        "æľī"
      ],
      [
        "åŁº",
        "äºİ"
      ],
      [
        "å¥",
        "¶"
      ],
      [
        "âĢĿ",
        "ï¼Į"
      ],
      [
        "æ",
        "¹"
      ],
      [
        "åĬł",
        "åħ¥"
      ],
      [
        "åħ³",
        "æ³¨"
      ],
      [
        "çº",
        "§"
      ],
      [
        "å¥",
        "ĩ"
      ],
      [
        "è¿ĺ",
        "æĺ¯"
      ],
      [
        "èī²",
        "çļĦ"
      ],
      [
        "ç»",
        "ĩ"
      ],
      [
        "è¯",
        "Ĭ"
      ],
      [
        "æ±",
        "¡æŁĵ"
      ],
      [
        "åı",
        "Ī"
      ],
      [
        "å¦Ĥæŀľ",
        "ä½ł"
      ],
      [
        "é¢",
        "ľ"
      ],
      [
        "éģ",
        "ĩ"
      ],
      [
        "åĬ",
        "ª"
      ],
      [
        "ä¸",
        "¾"
      ],
      [
        "åº",
        "ľ"
      ],
      [
        "åĿ",
        "Ĺ"
      ],
      [
        "ï¼Ł",
        "<|"
      ],
      [
        "é¦",
        "Ĩ"
      ],
      [
        "åĩº",
        "çİ°"
      ],
      [
        "è¿",
        "ŀ"
      ],
      [
        "çļĦ",
        "æĸĩç«ł"
      ],
      [
        "ä¸",
        "°"
      ],
      [
        "é¸",
        "¡"
      ],
      [
        "ç±»",
        "åŀĭ"
      ],
      [
        "ä»¥ä¸ĭ",
        "åı¥åŃĲ"
      ],
      [
        "ç¡®",
        "å®ļ"
      ],
      [
        "åĪ",
        "»"
      ],
      [
        "å®¶",
        "åºŃ"
      ],
      [
        "æĮ",
        "ĳæĪĺ"
      ],
      [
        "æĺ",
        "¥"
      ],
      [
        "å®¢",
        "æĪ·"
      ],
      [
        "èµĦ",
        "æºĲ"
      ],
      [
        "çļĦæ",
        "İ"
      ],
      [
        "åĬª",
        "åĬĽ"
      ],
      [
        "åĶ",
        "®"
      ],
      [
        "è½",
        "¯"
      ],
      [
        "ç¿",
        "»"
      ],
      [
        "èĪ",
        "Ĵ"
      ],
      [
        "èį",
        "¯"
      ],
      [
        "è®Ń",
        "ç»ĥ"
      ],
      [
        "æİ§",
        "åĪ¶"
      ],
      [
        "èĻ",
        "½"
      ],
      [
        "æľī",
        "è¶£"
      ],
      [
        "éĿ",
        "Ļ"
      ],
      [
        "æĢ§",
        "åĴĮ"
      ],
      [
        "æķ",
        "£"
      ],
      [
        "è¿",
        "½"
      ],
      [
        "åĬŁ",
        "èĥ½"
      ],
      [
        "è¿Ļ",
        "æĺ¯"
      ],
      [
        "ä»İ",
        "èĢĮ"
      ],
      [
        "èĦ",
        "ĳ"
      ],
      [
        "çļĦæĬ",
        "Ģ"
      ],
      [
        "æŃ£",
        "ç¡®"
      ],
      [
        "åıĹ",
        "åĪ°"
      ],
      [
        "æĸ¹",
        "æ¡Ī"
      ],
      [
        "çļĦ",
        "åı¥åŃĲ"
      ],
      [
        "çļĦæ",
        "Ļ"
      ],
      [
        "ä¸º",
        "äºĨ"
      ],
      [
        "ç§",
        "ĭ"
      ],
      [
        "é¸",
        "Ł"
      ],
      [
        "æ£",
        "Ģ"
      ],
      [
        "ä¸",
        "¥"
      ],
      [
        "æĬ",
        "ķ"
      ],
      [
        "é",
        "Ń"
      ],
      [
        "è",
        "Ń"
      ],
      [
        "è§Ĵ",
        "èī²"
      ],
      [
        "æ²»",
        "çĸĹ"
      ],
      [
        "æĤ¨",
        "åı¯ä»¥"
      ],
      [
        "åħ",
        "¸"
      ],
      [
        "çĸ",
        "¾çĹħ"
      ],
      [
        "é¢Ħ",
        "æµĭ"
      ],
      [
        "èīº",
        "æľ¯"
      ],
      [
        "å±",
        "Ĥ"
      ],
      [
        "æ²",
        "Ļ"
      ],
      [
        "çļĦç",
        "¾"
      ],
      [
        "å½",
        "Ĵ"
      ],
      [
        "åİĭ",
        "åĬĽ"
      ],
      [
        "ç¨ĭ",
        "åºı"
      ],
      [
        "æ¯Ķ",
        "è¾ĥ"
      ],
      [
        "æķĪ",
        "çİĩ"
      ],
      [
        "æİ¢",
        "ç´¢"
      ],
      [
        "åģ",
        "ĩ"
      ],
      [
        "äº",
        "ĳ"
      ],
      [
        "è¯",
        "¦"
      ],
      [
        "äººå·¥æĻºèĥ½",
        "æĬĢæľ¯"
      ],
      [
        "äºĭ",
        "ä»¶"
      ],
      [
        "èĮ",
        "ĥ"
      ],
      [
        "è",
        "Ķ"
      ],
      [
        "ä¸Ĭ",
        "çļĦ"
[...]
